{
  "version": "1.0",
  "truncation": null,
  "padding": null,
  "added_tokens": [
    {
      "id": 0,
      "content": "<unk>",
      "single_word": false,
      "lstrip": false,
      "rstrip": false,
      "normalized": true,
      "special": true
    },
    {
      "id": 1,
      "content": "<s>",
      "single_word": false,
      "lstrip": false,
      "rstrip": false,
      "normalized": true,
      "special": true
    },
    {
      "id": 2,
      "content": "</s>",
      "single_word": false,
      "lstrip": false,
      "rstrip": false,
      "normalized": true,
      "special": true
    }
  ],
  "normalizer": {
    "type": "Sequence",
    "normalizers": [
      {
        "type": "Prepend",
        "prepend": "▁"
      },
      {
        "type": "Replace",
        "pattern": {
          "String": " "
        },
        "content": "▁"
      }
    ]
  },
  "pre_tokenizer": null,
  "post_processor": {
    "type": "TemplateProcessing",
    "single": [
      {
        "SpecialToken": {
          "id": "<s>",
          "type_id": 0
        }
      },
      {
        "Sequence": {
          "id": "A",
          "type_id": 0
        }
      }
    ],
    "pair": [
      {
        "SpecialToken": {
          "id": "<s>",
          "type_id": 0
        }
      },
      {
        "Sequence": {
          "id": "A",
          "type_id": 0
        }
      },
      {
        "SpecialToken": {
          "id": "<s>",
          "type_id": 1
        }
      },
      {
        "Sequence": {
          "id": "B",
          "type_id": 1
        }
      }
    ],
    "special_tokens": {
      "<s>": {
        "id": "<s>",
        "ids": [
          1
        ],
        "tokens": [
          "<s>"
        ]
      }
    }
  },
  "decoder": {
    "type": "Sequence",
    "decoders": [
      {
        "type": "Replace",
        "pattern": {
          "String": "▁"
        },
        "content": " "
      },
      {
        "type": "ByteFallback"
      },
      {
        "type": "Fuse"
      },
      {
        "type": "Strip",
        "content": " ",
        "start": 1,
        "stop": 0
      }
    ]
  },
  "model": {
    "type": "BPE",
    "dropout": null,
    "unk_token": "<unk>",
    "continuing_subword_prefix": null,
    "end_of_word_suffix": null,
    "fuse_unk": true,
    "byte_fallback": true,
    "ignore_merges": false,
    "vocab": {
      "<unk>": 0,
      "<s>": 1,
      "</s>": 2,
      "<0x00>": 3,
      "<0x01>": 4,
      "<0x02>": 5,
      "<0x03>": 6,
      "<0x04>": 7,
      "<0x05>": 8,
      "<0x06>": 9,
      "<0x07>": 10,
      "<0x08>": 11,
      "<0x09>": 12,
      "<0x0A>": 13,
      "<0x0B>": 14,
      "<0x0C>": 15,
      "<0x0D>": 16,
      "<0x0E>": 17,
      "<0x0F>": 18,
      "<0x10>": 19,
      "<0x11>": 20,
      "<0x12>": 21,
      "<0x13>": 22,
      "<0x14>": 23,
      "<0x15>": 24,
      "<0x16>": 25,
      "<0x17>": 26,
      "<0x18>": 27,
      "<0x19>": 28,
      "<0x1A>": 29,
      "<0x1B>": 30,
      "<0x1C>": 31,
      "<0x1D>": 32,
      "<0x1E>": 33,
      "<0x1F>": 34,
      "<0x20>": 35,
      "<0x21>": 36,
      "<0x22>": 37,
      "<0x23>": 38,
      "<0x24>": 39,
      "<0x25>": 40,
      "<0x26>": 41,
      "<0x27>": 42,
      "<0x28>": 43,
      "<0x29>": 44,
      "<0x2A>": 45,
      "<0x2B>": 46,
      "<0x2C>": 47,
      "<0x2D>": 48,
      "<0x2E>": 49,
      "<0x2F>": 50,
      "<0x30>": 51,
      "<0x31>": 52,
      "<0x32>": 53,
      "<0x33>": 54,
      "<0x34>": 55,
      "<0x35>": 56,
      "<0x36>": 57,
      "<0x37>": 58,
      "<0x38>": 59,
      "<0x39>": 60,
      "<0x3A>": 61,
      "<0x3B>": 62,
      "<0x3C>": 63,
      "<0x3D>": 64,
      "<0x3E>": 65,
      "<0x3F>": 66,
      "<0x40>": 67,
      "<0x41>": 68,
      "<0x42>": 69,
      "<0x43>": 70,
      "<0x44>": 71,
      "<0x45>": 72,
      "<0x46>": 73,
      "<0x47>": 74,
      "<0x48>": 75,
      "<0x49>": 76,
      "<0x4A>": 77,
      "<0x4B>": 78,
      "<0x4C>": 79,
      "<0x4D>": 80,
      "<0x4E>": 81,
      "<0x4F>": 82,
      "<0x50>": 83,
      "<0x51>": 84,
      "<0x52>": 85,
      "<0x53>": 86,
      "<0x54>": 87,
      "<0x55>": 88,
      "<0x56>": 89,
      "<0x57>": 90,
      "<0x58>": 91,
      "<0x59>": 92,
      "<0x5A>": 93,
      "<0x5B>": 94,
      "<0x5C>": 95,
      "<0x5D>": 96,
      "<0x5E>": 97,
      "<0x5F>": 98,
      "<0x60>": 99,
      "<0x61>": 100,
      "<0x62>": 101,
      "<0x63>": 102,
      "<0x64>": 103,
      "<0x65>": 104,
      "<0x66>": 105,
      "<0x67>": 106,
      "<0x68>": 107,
      "<0x69>": 108,
      "<0x6A>": 109,
      "<0x6B>": 110,
      "<0x6C>": 111,
      "<0x6D>": 112,
      "<0x6E>": 113,
      "<0x6F>": 114,
      "<0x70>": 115,
      "<0x71>": 116,
      "<0x72>": 117,
      "<0x73>": 118,
      "<0x74>": 119,
      "<0x75>": 120,
      "<0x76>": 121,
      "<0x77>": 122,
      "<0x78>": 123,
      "<0x79>": 124,
      "<0x7A>": 125,
      "<0x7B>": 126,
      "<0x7C>": 127,
      "<0x7D>": 128,
      "<0x7E>": 129,
      "<0x7F>": 130,
      "<0x80>": 131,
      "<0x81>": 132,
      "<0x82>": 133,
      "<0x83>": 134,
      "<0x84>": 135,
      "<0x85>": 136,
      "<0x86>": 137,
      "<0x87>": 138,
      "<0x88>": 139,
      "<0x89>": 140,
      "<0x8A>": 141,
      "<0x8B>": 142,
      "<0x8C>": 143,
      "<0x8D>": 144,
      "<0x8E>": 145,
      "<0x8F>": 146,
      "<0x90>": 147,
      "<0x91>": 148,
      "<0x92>": 149,
      "<0x93>": 150,
      "<0x94>": 151,
      "<0x95>": 152,
      "<0x96>": 153,
      "<0x97>": 154,
      "<0x98>": 155,
      "<0x99>": 156,
      "<0x9A>": 157,
      "<0x9B>": 158,
      "<0x9C>": 159,
      "<0x9D>": 160,
      "<0x9E>": 161,
      "<0x9F>": 162,
      "<0xA0>": 163,
      "<0xA1>": 164,
      "<0xA2>": 165,
      "<0xA3>": 166,
      "<0xA4>": 167,
      "<0xA5>": 168,
      "<0xA6>": 169,
      "<0xA7>": 170,
      "<0xA8>": 171,
      "<0xA9>": 172,
      "<0xAA>": 173,
      "<0xAB>": 174,
      "<0xAC>": 175,
      "<0xAD>": 176,
      "<0xAE>": 177,
      "<0xAF>": 178,
      "<0xB0>": 179,
      "<0xB1>": 180,
      "<0xB2>": 181,
      "<0xB3>": 182,
      "<0xB4>": 183,
      "<0xB5>": 184,
      "<0xB6>": 185,
      "<0xB7>": 186,
      "<0xB8>": 187,
      "<0xB9>": 188,
      "<0xBA>": 189,
      "<0xBB>": 190,
      "<0xBC>": 191,
      "<0xBD>": 192,
      "<0xBE>": 193,
      "<0xBF>": 194,
      "<0xC0>": 195,
      "<0xC1>": 196,
      "<0xC2>": 197,
      "<0xC3>": 198,
      "<0xC4>": 199,
      "<0xC5>": 200,
      "<0xC6>": 201,
      "<0xC7>": 202,
      "<0xC8>": 203,
      "<0xC9>": 204,
      "<0xCA>": 205,
      "<0xCB>": 206,
      "<0xCC>": 207,
      "<0xCD>": 208,
      "<0xCE>": 209,
      "<0xCF>": 210,
      "<0xD0>": 211,
      "<0xD1>": 212,
      "<0xD2>": 213,
      "<0xD3>": 214,
      "<0xD4>": 215,
      "<0xD5>": 216,
      "<0xD6>": 217,
      "<0xD7>": 218,
      "<0xD8>": 219,
      "<0xD9>": 220,
      "<0xDA>": 221,
      "<0xDB>": 222,
      "<0xDC>": 223,
      "<0xDD>": 224,
      "<0xDE>": 225,
      "<0xDF>": 226,
      "<0xE0>": 227,
      "<0xE1>": 228,
      "<0xE2>": 229,
      "<0xE3>": 230,
      "<0xE4>": 231,
      "<0xE5>": 232,
      "<0xE6>": 233,
      "<0xE7>": 234,
      "<0xE8>": 235,
      "<0xE9>": 236,
      "<0xEA>": 237,
      "<0xEB>": 238,
      "<0xEC>": 239,
      "<0xED>": 240,
      "<0xEE>": 241,
      "<0xEF>": 242,
      "<0xF0>": 243,
      "<0xF1>": 244,
      "<0xF2>": 245,
      "<0xF3>": 246,
      "<0xF4>": 247,
      "<0xF5>": 248,
      "<0xF6>": 249,
      "<0xF7>": 250,
      "<0xF8>": 251,
      "<0xF9>": 252,
      "<0xFA>": 253,
      "<0xFB>": 254,
      "<0xFC>": 255,
      "<0xFD>": 256,
      "<0xFE>": 257,
      "<0xFF>": 258,
      "▁t": 259,
      "▁a": 260,
      "in": 261,
      "he": 262,
      "▁▁": 263,
      "re": 264,
      "on": 265,
      "er": 266,
      "▁s": 267,
      "▁the": 268,
      "at": 269,
      "or": 270,
      "en": 271,
      "▁w": 272,
      "▁c": 273,
      "ou": 274,
      "it": 275,
      "es": 276,
      "is": 277,
      "an": 278,
      "▁f": 279,
      "ing": 280,
      "▁b": 281,
      "▁p": 282,
      "▁▁▁▁": 283,
      "al": 284,
      "▁o": 285,
      "ed": 286,
      "nd": 287,
      "ar": 288,
      "▁m": 289,
      "▁to": 290,
      "▁d": 291,
      "le": 292,
      "▁in": 293,
      "ic": 294,
      "▁and": 295,
      "▁of": 296,
      "ion": 297,
      "as": 298,
      "om": 299,
      "▁h": 300,
      "▁th": 301,
      "ent": 302,
      "il": 303,
      "st": 304,
      "et": 305,
      "▁I": 306,
      "▁l": 307,
      "▁T": 308,
      "ro": 309,
      "el": 310,
      "▁n": 311,
      "ct": 312,
      "▁re": 313,
      "▁S": 314,
      "▁g": 315,
      "▁e": 316,
      "▁y": 317,
      "▁A": 318,
      "ve": 319,
      "id": 320,
      "ot": 321,
      "▁C": 322,
      "am": 323,
      "▁▁▁▁▁▁▁▁": 324,
      "▁is": 325,
      "im": 326,
      "ol": 327,
      "ac": 328,
      "ad": 329,
      "ay": 330,
      "ow": 331,
      "us": 332,
      "▁you": 333,
      "▁for": 334,
      "ig": 335,
      "ut": 336,
      "▁on": 337,
      "ly": 338,
      "▁be": 339,
      "ver": 340,
      "ur": 341,
      "▁M": 342,
      "ation": 343,
      "▁st": 344,
      "▁P": 345,
      "ith": 346,
      "▁that": 347,
      "▁B": 348,
      "ch": 349,
      "ce": 350,
      "ul": 351,
      "ir": 352,
      "▁(": 353,
      "se": 354,
      "if": 355,
      "un": 356,
      "▁with": 357,
      "▁it": 358,
      "▁W": 359,
      "ag": 360,
      "od": 361,
      "ter": 362,
      "▁he": 363,
      "▁The": 364,
      "▁D": 365,
      "▁-": 366,
      "▁H": 367,
      "▁F": 368,
      "▁al": 369,
      "em": 370,
      "▁an": 371,
      "▁as": 372,
      "▁R": 373,
      "out": 374,
      "ab": 375,
      "▁con": 376,
      "ill": 377,
      "▁wh": 378,
      "ri": 379,
      "ate": 380,
      "ers": 381,
      "ke": 382,
      "est": 383,
      "pp": 384,
      "▁L": 385,
      "▁pro": 386,
      "ra": 387,
      "▁v": 388,
      "▁we": 389,
      "ess": 390,
      "um": 391,
      "▁are": 392,
      "qu": 393,
      "ew": 394,
      "ist": 395,
      "ore": 396,
      "ort": 397,
      "her": 398,
      "our": 399,
      "ht": 400,
      "op": 401,
      "and": 402,
      "▁com": 403,
      "▁N": 404,
      "▁E": 405,
      "▁ha": 406,
      "▁G": 407,
      "▁or": 408,
      "ld": 409,
      "▁at": 410,
      "▁de": 411,
      "ect": 412,
      "oc": 413,
      "rom": 414,
      "res": 415,
      "▁ex": 416,
      "os": 417,
      "th": 418,
      "▁=": 419,
      "▁this": 420,
      "▁O": 421,
      "▁r": 422,
      "ment": 423,
      "ant": 424,
      "▁was": 425,
      "nt": 426,
      "ity": 427,
      "▁se": 428,
      "end": 429,
      "art": 430,
      "▁\"": 431,
      "ain": 432,
      "ust": 433,
      "ight": 434,
      "▁have": 435,
      "up": 436,
      "▁not": 437,
      "▁us": 438,
      "iv": 439,
      "▁from": 440,
      ");": 441,
      "ive": 442,
      "▁by": 443,
      "▁sh": 444,
      "▁your": 445,
      "all": 446,
      "ure": 447,
      "pt": 448,
      "ies": 449,
      "▁ch": 450,
      "pe": 451,
      "ub": 452,
      "▁{": 453,
      "▁can": 454,
      "ack": 455,
      "ame": 456,
      "ine": 457,
      "oo": 458,
      "▁J": 459,
      "ard": 460,
      "ud": 461,
      "ould": 462,
      "ue": 463,
      "▁le": 464,
      "ost": 465,
      "ome": 466,
      "▁j": 467,
      "age": 468,
      "ell": 469,
      "ial": 470,
      "te": 471,
      "pl": 472,
      "ge": 473,
      "og": 474,
      "▁ab": 475,
      "red": 476,
      "▁will": 477,
      "▁ne": 478,
      "rou": 479,
      "▁k": 480,
      "ide": 481,
      "▁}": 482,
      "▁Th": 483,
      "ak": 484,
      "▁pl": 485,
      "ff": 486,
      "ast": 487,
      "▁all": 488,
      "iz": 489,
      "ass": 490,
      "ice": 491,
      "ction": 492,
      "ind": 493,
      "ap": 494,
      "▁do": 495,
      "▁wor": 496,
      "▁U": 497,
      "▁▁▁▁▁▁▁▁▁▁▁▁": 498,
      "▁cl": 499,
      "able": 500,
      "▁In": 501,
      "ear": 502,
      "▁im": 503,
      "ally": 504,
      "▁tr": 505,
      "▁<": 506,
      "▁go": 507,
      "▁me": 508,
      "▁$": 509,
      "▁but": 510,
      "▁whe": 511,
      "one": 512,
      "are": 513,
      "ip": 514,
      "ook": 515,
      "▁su": 516,
      "ime": 517,
      "▁ad": 518,
      "cl": 519,
      "per": 520,
      "orm": 521,
      "▁out": 522,
      "ult": 523,
      "▁has": 524,
      "ite": 525,
      "ich": 526,
      "▁en": 527,
      "▁so": 528,
      "ake": 529,
      "▁up": 530,
      "▁my": 531,
      "ated": 532,
      "ong": 533,
      "▁\\": 534,
      "ans": 535,
      "▁St": 536,
      "ther": 537,
      "▁Y": 538,
      "▁K": 539,
      "port": 540,
      "ie": 541,
      "ase": 542,
      "int": 543,
      "▁V": 544,
      "ber": 545,
      "//": 546,
      "ile": 547,
      "gh": 548,
      "▁comp": 549,
      "cc": 550,
      "▁if": 551,
      "ions": 552,
      "av": 553,
      "ace": 554,
      "ail": 555,
      "very": 556,
      "act": 557,
      "▁they": 558,
      "--": 559,
      "▁more": 560,
      "▁int": 561,
      "▁li": 562,
      "ous": 563,
      "urn": 564,
      "▁un": 565,
      "ks": 566,
      "ry": 567,
      "xt": 568,
      "▁“": 569,
      "ign": 570,
      "ia": 571,
      "ire": 572,
      "▁one": 573,
      "so": 574,
      "ance": 575,
      "ep": 576,
      "▁res": 577,
      "ary": 578,
      "▁▁▁▁▁▁▁▁▁▁▁▁▁▁▁▁": 579,
      "lic": 580,
      "▁their": 581,
      "▁cont": 582,
      "ib": 583,
      "und": 584,
      "com": 585,
      "ll": 586,
      "▁about": 587,
      "▁new": 588,
      "▁get": 589,
      "du": 590,
      "▁qu": 591,
      "ach": 592,
      "con": 593,
      "ord": 594,
      "..": 595,
      "▁It": 596,
      "▁his": 597,
      "▁app": 598,
      "▁man": 599,
      "erv": 600,
      "ations": 601,
      "ree": 602,
      "▁which": 603,
      "ount": 604,
      "▁our": 605,
      "▁Ch": 606,
      "form": 607,
      "▁who": 608,
      "ress": 609,
      "reat": 610,
      "ents": 611,
      "▁te": 612,
      "own": 613,
      "ring": 614,
      "ove": 615,
      "ob": 616,
      "ays": 617,
      "▁sp": 618,
      "▁per": 619,
      "ition": 620,
      ").": 621,
      "ere": 622,
      "ens": 623,
      "ild": 624,
      "vel": 625,
      "get": 626,
      "▁sa": 627,
      "ru": 628,
      "▁off": 629,
      "ical": 630,
      "ang": 631,
      "▁time": 632,
      "▁ar": 633,
      "▁Re": 634,
      "▁dis": 635,
      "▁ev": 636,
      "▁▁▁▁▁▁": 637,
      "ick": 638,
      "▁other": 639,
      "ence": 640,
      "▁any": 641,
      "▁some": 642,
      "ely": 643,
      "**": 644,
      "▁We": 645,
      "ath": 646,
      "ark": 647,
      "▁like": 648,
      "ink": 649,
      "▁kn": 650,
      "▁also": 651,
      "▁work": 652,
      "ck": 653,
      "▁sc": 654,
      "ory": 655,
      "▁ag": 656,
      "▁there": 657,
      "ose": 658,
      "▁&": 659,
      "▁This": 660,
      "▁when": 661,
      "▁would": 662,
      "▁had": 663,
      "ings": 664,
      "ft": 665,
      "ors": 666,
      "▁them": 667,
      "ject": 668,
      "▁year": 669,
      "iew": 670,
      "ound": 671,
      "▁part": 672,
      "()": 673,
      "▁ro": 674,
      "▁'": 675,
      "ef": 676,
      "ov": 677,
      "▁over": 678,
      "▁were": 679,
      "▁what": 680,
      "▁been": 681,
      "▁her": 682,
      "ph": 683,
      "▁just": 684,
      "iss": 685,
      "▁pe": 686,
      "▁am": 687,
      "turn": 688,
      "ata": 689,
      "▁pre": 690,
      "row": 691,
      "▁*": 692,
      "vers": 693,
      "use": 694,
      "▁#": 695,
      "ont": 696,
      "ood": 697,
      "ish": 698,
      "ne": 699,
      "▁than": 700,
      "old": 701,
      "=\"": 702,
      "▁[": 703,
      "▁need": 704,
      "▁//": 705,
      "irst": 706,
      "ty": 707,
      "ode": 708,
      "low": 709,
      "ool": 710,
      "),": 711,
      "▁no": 712,
      "oy": 713,
      "▁fe": 714,
      "ert": 715,
      "▁des": 716,
      "ple": 717,
      "▁He": 718,
      "ock": 719,
      "▁bl": 720,
      "▁how": 721,
      "clud": 722,
      "tern": 723,
      "\",": 724,
      "▁into": 725,
      "ull": 726,
      "ople": 727,
      "▁–": 728,
      "ater": 729,
      "ade": 730,
      "ual": 731,
      "mer": 732,
      "we": 733,
      "che": 734,
      "▁Wh": 735,
      "▁acc": 736,
      "▁its": 737,
      "eth": 738,
      "ublic": 739,
      "pec": 740,
      "fter": 741,
      "itt": 742,
      "ric": 743,
      "ca": 744,
      "ces": 745,
      "ond": 746,
      "ian": 747,
      "St": 748,
      "▁add": 749,
      "iff": 750,
      "ex": 751,
      "igh": 752,
      "ize": 753,
      "▁und": 754,
      "ning": 755,
      "▁col": 756,
      "sp": 757,
      "▁You": 758,
      "▁rec": 759,
      "▁she": 760,
      "▁.": 761,
      "li": 762,
      "ons": 763,
      "▁know": 764,
      "▁tw": 765,
      "ss": 766,
      "ates": 767,
      "▁look": 768,
      "▁people": 769,
      "round": 770,
      "gr": 771,
      "▁back": 772,
      "yst": 773,
      "▁only": 774,
      "ious": 775,
      "ps": 776,
      "▁class": 777,
      "▁comm": 778,
      "▁bu": 779,
      "ating": 780,
      "▁said": 781,
      "▁i": 782,
      "▁make": 783,
      "▁may": 784,
      "les": 785,
      "▁ind": 786,
      "▁first": 787,
      "▁import": 788,
      "lect": 789,
      "▁bet": 790,
      "elf": 791,
      "</": 792,
      "oint": 793,
      "lo": 794,
      "ng": 795,
      "▁want": 796,
      "rib": 797,
      "ption": 798,
      "wn": 799,
      "▁see": 800,
      "▁hel": 801,
      "▁fun": 802,
      "▁pr": 803,
      "▁use": 804,
      "ific": 805,
      "ise": 806,
      "ough": 807,
      "ener": 808,
      "pro": 809,
      "ug": 810,
      "▁set": 811,
      "rough": 812,
      "▁:": 813,
      "▁act": 814,
      "▁return": 815,
      "▁Pro": 816,
      "▁em": 817,
      "ystem": 818,
      "ments": 819,
      "▁/": 820,
      "▁prov": 821,
      "...": 822,
      "▁If": 823,
      "▁every": 824,
      "cre": 825,
      "rit": 826,
      "▁|": 827,
      "ax": 828,
      "▁Com": 829,
      "ype": 830,
      "▁most": 831,
      "ange": 832,
      "day": 833,
      "----": 834,
      "▁+": 835,
      "▁exp": 836,
      "▁well": 837,
      "▁ph": 838,
      "▁could": 839,
      "▁under": 840,
      "cess": 841,
      "ble": 842,
      "ern": 843,
      "als": 844,
      "▁cons": 845,
      "▁two": 846,
      "▁these": 847,
      "uch": 848,
      "▁Se": 849,
      "▁diff": 850,
      "aw": 851,
      "ful": 852,
      "ys": 853,
      "erm": 854,
      "io": 855,
      "▁ass": 856,
      "▁then": 857,
      "ting": 858,
      "line": 859,
      "▁ke": 860,
      "▁through": 861,
      "oth": 862,
      "▁should": 863,
      "▁very": 864,
      "ix": 865,
      "cause": 866,
      "▁co": 867,
      "▁And": 868,
      "riv": 869,
      "ities": 870,
      "▁good": 871,
      "▁att": 872,
      "▁produ": 873,
      "▁Un": 874,
      "▁includ": 875,
      "▁help": 876,
      "::": 877,
      "▁supp": 878,
      "▁pos": 879,
      "alue": 880,
      "▁fin": 881,
      "ork": 882,
      "▁serv": 883,
      "▁reg": 884,
      "ife": 885,
      "(\"": 886,
      "▁where": 887,
      "hed": 888,
      "ced": 889,
      "▁way": 890,
      "▁now": 891,
      "ily": 892,
      "▁public": 893,
      "▁rem": 894,
      "ible": 895,
      "ular": 896,
      "▁after": 897,
      "▁def": 898,
      "▁An": 899,
      "ok": 900,
      "hen": 901,
      "ures": 902,
      "▁don": 903,
      "▁inst": 904,
      "iel": 905,
      "fore": 906,
      "atch": 907,
      "eg": 908,
      "▁did": 909,
      "err": 910,
      "▁ob": 911,
      "ics": 912,
      "▁even": 913,
      "▁rel": 914,
      "▁sm": 915,
      "erson": 916,
      "ict": 917,
      "ility": 918,
      "ract": 919,
      "sh": 920,
      "▁play": 921,
      "its": 922,
      "ash": 923,
      "▁requ": 924,
      "▁For": 925,
      "▁inv": 926,
      "In": 927,
      "ient": 928,
      "▁var": 929,
      "▁read": 930,
      "▁many": 931,
      "▁@": 932,
      "ices": 933,
      "▁him": 934,
      "▁start": 935,
      "▁Sh": 936,
      "ER": 937,
      "▁think": 938,
      "aking": 939,
      "▁because": 940,
      "▁right": 941,
      "put": 942,
      "iness": 943,
      "olog": 944,
      "▁Al": 945,
      "▁stud": 946,
      "▁years": 947,
      "arch": 948,
      "▁end": 949,
      "▁great": 950,
      "ased": 951,
      "▁ent": 952,
      "▁De": 953,
      "▁gu": 954,
      "any": 955,
      "pr": 956,
      "read": 957,
      "▁much": 958,
      "view": 959,
      "▁tra": 960,
      "▁down": 961,
      "ren": 962,
      "air": 963,
      "ward": 964,
      "▁gr": 965,
      "▁mod": 966,
      "ues": 967,
      "ement": 968,
      "ational": 969,
      "▁che": 970,
      "__": 971,
      "▁sub": 972,
      "ied": 973,
      "ank": 974,
      "\">": 975,
      "▁const": 976,
      "▁find": 977,
      "ale": 978,
      "▁here": 979,
      "ts": 980,
      "other": 981,
      "▁Ar": 982,
      "▁\r": 983,
      "▁exper": 984,
      "▁spec": 985,
      "▁long": 986,
      "▁does": 987,
      "ollow": 988,
      "ident": 989,
      "ner": 990,
      "▁loc": 991,
      "ative": 992,
      "▁show": 993,
      "▁call": 994,
      "▁As": 995,
      "ek": 996,
      "();": 997,
      "▁el": 998,
      "cy": 999,
      "IN": 1000,
      "▁min": 1001,
      "▁own": 1002,
      "formation": 1003,
      "ield": 1004,
      "arg": 1005,
      "▁Ad": 1006,
      "ages": 1007,
      "▁But": 1008,
      "_{": 1009,
      "▁differe": 1010,
      "az": 1011,
      "▁New": 1012,
      "ience": 1013,
      "▁ac": 1014,
      "ox": 1015,
      "▁such": 1016,
      "ave": 1017,
      "usiness": 1018,
      "velop": 1019,
      "▁fl": 1020,
      "uring": 1021,
      "▁num": 1022,
      "▁again": 1023,
      "oid": 1024,
      "let": 1025,
      "▁sim": 1026,
      "▁eff": 1027,
      "pen": 1028,
      "▁Q": 1029,
      "▁day": 1030,
      "ars": 1031,
      "▁bel": 1032,
      "ms": 1033,
      "ON": 1034,
      "ower": 1035,
      "▁som": 1036,
      "▁pol": 1037,
      "ited": 1038,
      "▁trans": 1039,
      "▁best": 1040,
      "▁cre": 1041,
      "ins": 1042,
      "▁high": 1043,
      "->": 1044,
      "ven": 1045,
      "ually": 1046,
      "▁being": 1047,
      "▁using": 1048,
      "alth": 1049,
      "▁take": 1050,
      "▁before": 1051,
      "text": 1052,
      "▁mon": 1053,
      "atic": 1054,
      "to": 1055,
      "▁pres": 1056,
      "der": 1057,
      "▁How": 1058,
      "▁hand": 1059,
      "rent": 1060,
      "==": 1061,
      "▁cur": 1062,
      "ets": 1063,
      "vent": 1064,
      "ton": 1065,
      "amp": 1066,
      "▁used": 1067,
      "led": 1068,
      "▁inter": 1069,
      "▁dec": 1070,
      "alk": 1071,
      "app": 1072,
      "▁ext": 1073,
      "nce": 1074,
      "ah": 1075,
      "els": 1076,
      "▁those": 1077,
      "way": 1078,
      "▁follow": 1079,
      "gan": 1080,
      "▁made": 1081,
      "ution": 1082,
      "▁av": 1083,
      "chool": 1084,
      "▁resp": 1085,
      "ute": 1086,
      "imes": 1087,
      ".\"": 1088,
      "ames": 1089,
      "ason": 1090,
      "▁There": 1091,
      "▁det": 1092,
      "▁sur": 1093,
      "▁really": 1094,
      "',": 1095,
      "ince": 1096,
      "par": 1097,
      "▁person": 1098,
      "ouse": 1099,
      "irect": 1100,
      "set": 1101,
      "ec": 1102,
      "ator": 1103,
      "▁data": 1104,
      "ght": 1105,
      "ines": 1106,
      "▁last": 1107,
      "▁Ex": 1108,
      "sc": 1109,
      ".”": 1110,
      "gram": 1111,
      "▁So": 1112,
      "▁aut": 1113,
      "▁list": 1114,
      "ody": 1115,
      "bs": 1116,
      "▁car": 1117,
      "▁post": 1118,
      "▁fam": 1119,
      "ather": 1120,
      "lease": 1121,
      "ery": 1122,
      "ann": 1123,
      "▁home": 1124,
      "arn": 1125,
      "▁while": 1126,
      "rest": 1127,
      "eng": 1128,
      "▁br": 1129,
      "▁each": 1130,
      "▁ser": 1131,
      "▁result": 1132,
      "land": 1133,
      "ever": 1134,
      "RE": 1135,
      "▁system": 1136,
      "▁mem": 1137,
      "▁ref": 1138,
      "tr": 1139,
      "▁conf": 1140,
      "▁run": 1141,
      "\":": 1142,
      "▁form": 1143,
      "ruct": 1144,
      "ature": 1145,
      "▁inte": 1146,
      "roup": 1147,
      "co": 1148,
      "▁_": 1149,
      "▁same": 1150,
      "▁Cl": 1151,
      "▁point": 1152,
      "pos": 1153,
      "▁Be": 1154,
      "▁function": 1155,
      "cond": 1156,
      "▁art": 1157,
      "arm": 1158,
      "br": 1159,
      "▁la": 1160,
      "▁life": 1161,
      "ection": 1162,
      "▁med": 1163,
      "▁mark": 1164,
      "oot": 1165,
      "akes": 1166,
      "ives": 1167,
      "▁going": 1168,
      "ier": 1169,
      "▁▁▁▁▁▁▁▁▁▁": 1170,
      "▁still": 1171,
      "▁different": 1172,
      "▁world": 1173,
      "ense": 1174,
      "▁information": 1175,
      "ustom": 1176,
      "anc": 1177,
      "▁business": 1178,
      "ween": 1179,
      "chn": 1180,
      "▁real": 1181,
      "▁ed": 1182,
      "▁vis": 1183,
      "▁too": 1184,
      "riend": 1185,
      "▁ca": 1186,
      "The": 1187,
      "self": 1188,
      "▁str": 1189,
      "uc": 1190,
      "tt": 1191,
      "▁develop": 1192,
      "▁gener": 1193,
      "▁name": 1194,
      "ired": 1195,
      "ead": 1196,
      "▁cor": 1197,
      "ivers": 1198,
      "▁say": 1199,
      "▁What": 1200,
      "be": 1201,
      "▁sign": 1202,
      "iet": 1203,
      "▁count": 1204,
      "▁around": 1205,
      "▁They": 1206,
      "AT": 1207,
      "ST": 1208,
      "▁Pl": 1209,
      "▁found": 1210,
      "▁fr": 1211,
      "ref": 1212,
      "ized": 1213,
      "▁fil": 1214,
      "▁support": 1215,
      "▁design": 1216,
      "▁ra": 1217,
      "▁x": 1218,
      "▁love": 1219,
      "▁ins": 1220,
      "hip": 1221,
      "▁sk": 1222,
      "ness": 1223,
      "▁gl": 1224,
      "▁On": 1225,
      "de": 1226,
      "▁cle": 1227,
      "▁cour": 1228,
      "ource": 1229,
      "▁del": 1230,
      "▁try": 1231,
      "▁child": 1232,
      "ittle": 1233,
      "ym": 1234,
      "ined": 1235,
      "▁Con": 1236,
      "▁between": 1237,
      "ected": 1238,
      "cept": 1239,
      "▁To": 1240,
      "ider": 1241,
      "▁product": 1242,
      "ways": 1243,
      "▁Bl": 1244,
      "▁Tr": 1245,
      "****": 1246,
      "▁book": 1247,
      "▁test": 1248,
      "ters": 1249,
      "{\\": 1250,
      "oun": 1251,
      "ott": 1252,
      "▁top": 1253,
      "▁sol": 1254,
      "▁free": 1255,
      "come": 1256,
      "▁both": 1257,
      "raph": 1258,
      "▁>": 1259,
      "the": 1260,
      "▁dist": 1261,
      "▁happ": 1262,
      "cent": 1263,
      "▁inf": 1264,
      "▁lead": 1265,
      "))": 1266,
      "▁eas": 1267,
      "▁lot": 1268,
      "ought": 1269,
      "uss": 1270,
      "Con": 1271,
      "yn": 1272,
      "▁She": 1273,
      "man": 1274,
      "▁char": 1275,
      "lection": 1276,
      "▁cr": 1277,
      "▁process": 1278,
      "son": 1279,
      "aut": 1280,
      "ething": 1281,
      "▁All": 1282,
      "▁care": 1283,
      "less": 1284,
      "ray": 1285,
      "yp": 1286,
      "ants": 1287,
      "▁let": 1288,
      "▁Sp": 1289,
      "▁few": 1290,
      "thing": 1291,
      "ik": 1292,
      "▁team": 1293,
      "unity": 1294,
      "ee": 1295,
      "▁place": 1296,
      "ession": 1297,
      "load": 1298,
      "ality": 1299,
      "▁Z": 1300,
      "orth": 1301,
      "▁par": 1302,
      "▁Ph": 1303,
      "▁week": 1304,
      "ving": 1305,
      "▁$\\": 1306,
      "gg": 1307,
      "cri": 1308,
      "▁fact": 1309,
      "▁things": 1310,
      "ote": 1311,
      "ross": 1312,
      "ream": 1313,
      "ailable": 1314,
      "▁feel": 1315,
      "▁wr": 1316,
      "▁little": 1317,
      "▁Col": 1318,
      "rol": 1319,
      "▁iss": 1320,
      "of": 1321,
      "▁`": 1322,
      "au": 1323,
      "▁prof": 1324,
      "ethod": 1325,
      "▁open": 1326,
      "ining": 1327,
      "▁program": 1328,
      "ared": 1329,
      "▁Te": 1330,
      "▁case": 1331,
      "▁disc": 1332,
      "▁lo": 1333,
      "ists": 1334,
      "ware": 1335,
      "▁z": 1336,
      "▁number": 1337,
      "▁</": 1338,
      "▁provid": 1339,
      "▁poss": 1340,
      "▁something": 1341,
      "▁Fr": 1342,
      "gy": 1343,
      "ered": 1344,
      "ma": 1345,
      "('": 1346,
      "ology": 1347,
      "ccess": 1348,
      "▁cent": 1349,
      "EN": 1350,
      "ital": 1351,
      "meric": 1352,
      "Pro": 1353,
      "▁build": 1354,
      "▁main": 1355,
      "▁!": 1356,
      "▁rep": 1357,
      "att": 1358,
      "hes": 1359,
      "▁three": 1360,
      "orn": 1361,
      "▁When": 1362,
      "▁keep": 1363,
      "--------": 1364,
      "bers": 1365,
      "▁appro": 1366,
      "▁exam": 1367,
      "OR": 1368,
      "add": 1369,
      "▁month": 1370,
      "Ex": 1371,
      "ems": 1372,
      "▁proble": 1373,
      "▁pass": 1374,
      "tain": 1375,
      "▁must": 1376,
      "AR": 1377,
      ",\"": 1378,
      "ush": 1379,
      "arly": 1380,
      "cur": 1381,
      "▁next": 1382,
      "▁Is": 1383,
      "▁sl": 1384,
      "▁Ind": 1385,
      "▁ide": 1386,
      "▁head": 1387,
      "que": 1388,
      "▁pur": 1389,
      "▁always": 1390,
      "▁==": 1391,
      "▁Res": 1392,
      "▁rest": 1393,
      "▁Or": 1394,
      "▁value": 1395,
      "▁better": 1396,
      "▁without": 1397,
      "▁partic": 1398,
      "▁put": 1399,
      "▁adv": 1400,
      "Name": 1401,
      "ved": 1402,
      "ished": 1403,
      "bl": 1404,
      "▁err": 1405,
      "ien": 1406,
      "inal": 1407,
      "▁Jo": 1408,
      "▁pat": 1409,
      "ering": 1410,
      "ows": 1411,
      "ument": 1412,
      "▁come": 1413,
      "aj": 1414,
      "▁quest": 1415,
      "rivate": 1416,
      "▁small": 1417,
      "▁val": 1418,
      "over": 1419,
      "comm": 1420,
      "▁project": 1421,
      "▁sure": 1422,
      "▁That": 1423,
      "equ": 1424,
      "▁dep": 1425,
      "uff": 1426,
      "iving": 1427,
      "▁might": 1428,
      "▁tri": 1429,
      "uck": 1430,
      "▁another": 1431,
      "▁friend": 1432,
      ",”": 1433,
      "oard": 1434,
      "min": 1435,
      "▁bre": 1436,
      "▁Sc": 1437,
      "issue": 1438,
      "return": 1439,
      "▁Americ": 1440,
      "▁custom": 1441,
      "▁interest": 1442,
      "▁contin": 1443,
      "▁My": 1444,
      "ism": 1445,
      "▁report": 1446,
      "stand": 1447,
      "math": 1448,
      "ision": 1449,
      "▁never": 1450,
      "▁type": 1451,
      "▁during": 1452,
      "atur": 1453,
      "▁second": 1454,
      "▁est": 1455,
      "▁got": 1456,
      "▁Le": 1457,
      "ope": 1458,
      "▁since": 1459,
      "▁big": 1460,
      "by": 1461,
      "ember": 1462,
      "IT": 1463,
      "ploy": 1464,
      "ially": 1465,
      "▁No": 1466,
      "▁old": 1467,
      "▁health": 1468,
      "Id": 1469,
      "▁school": 1470,
      "▁plan": 1471,
      "▁--": 1472,
      "rist": 1473,
      "▁available": 1474,
      "▁current": 1475,
      "▁effect": 1476,
      "ID": 1477,
      "▁techn": 1478,
      "pon": 1479,
      "ify": 1480,
      "back": 1481,
      "String": 1482,
      "AL": 1483,
      "▁‘": 1484,
      "▁online": 1485,
      "▁game": 1486,
      "til": 1487,
      "ername": 1488,
      "▁wom": 1489,
      "ves": 1490,
      "▁pay": 1491,
      "ats": 1492,
      "ior": 1493,
      "arent": 1494,
      "▁mov": 1495,
      "▁market": 1496,
      "reen": 1497,
      "▁stand": 1498,
      "AN": 1499,
      "▁else": 1500,
      "ten": 1501,
      "▁hard": 1502,
      "ask": 1503,
      "ger": 1504,
      "▁void": 1505,
      "▁line": 1506,
      "rem": 1507,
      "▁With": 1508,
      "ertain": 1509,
      "right": 1510,
      "▁direct": 1511,
      "oney": 1512,
      "},": 1513,
      "essage": 1514,
      "▁proper": 1515,
      "▁family": 1516,
      "▁service": 1517,
      "▁,": 1518,
      "▁expl": 1519,
      "▁rece": 1520,
      "▁equ": 1521,
      "▁soc": 1522,
      "▁oper": 1523,
      "ctions": 1524,
      "yle": 1525,
      "ases": 1526,
      "▁—": 1527,
      "▁Man": 1528,
      "▁ask": 1529,
      "here": 1530,
      "▁level": 1531,
      "▁et": 1532,
      "eb": 1533,
      "ately": 1534,
      "ral": 1535,
      "▁water": 1536,
      "▁true": 1537,
      "fr": 1538,
      "▁view": 1539,
      "ails": 1540,
      "Type": 1541,
      "▁company": 1542,
      "▁perform": 1543,
      "▁X": 1544,
      "fig": 1545,
      "ium": 1546,
      "ina": 1547,
      "▁Mar": 1548,
      "ron": 1549,
      "▁turn": 1550,
      "ault": 1551,
      "oss": 1552,
      "▁incre": 1553,
      "ified": 1554,
      "ait": 1555,
      "▁state": 1556,
      "▁di": 1557,
      "▁order": 1558,
      "name": 1559,
      "▁mat": 1560,
      "▁organ": 1561,
      "▁give": 1562,
      "▁prot": 1563,
      "work": 1564,
      "▁Pr": 1565,
      "hor": 1566,
      "ser": 1567,
      "▁full": 1568,
      ".,": 1569,
      "ization": 1570,
      "val": 1571,
      "://": 1572,
      "▁important": 1573,
      "ext": 1574,
      "▁experience": 1575,
      "▁opt": 1576,
      "▁grow": 1577,
      "ically": 1578,
      "ours": 1579,
      "▁At": 1580,
      "▁able": 1581,
      "iversity": 1582,
      "div": 1583,
      "▁met": 1584,
      "▁US": 1585,
      "ES": 1586,
      "itle": 1587,
      "arge": 1588,
      "▁spe": 1589,
      "col": 1590,
      "for": 1591,
      "med": 1592,
      "abel": 1593,
      "▁sit": 1594,
      "ception": 1595,
      "ds": 1596,
      "▁opp": 1597,
      "▁es": 1598,
      "outh": 1599,
      "▁including": 1600,
      "▁cost": 1601,
      "▁days": 1602,
      "▁check": 1603,
      "▁manag": 1604,
      "lement": 1605,
      "iven": 1606,
      "icle": 1607,
      "ling": 1608,
      "lex": 1609,
      "▁Comm": 1610,
      "▁less": 1611,
      "raw": 1612,
      "▁App": 1613,
      "ably": 1614,
      "▁sing": 1615,
      "▁mus": 1616,
      "ump": 1617,
      "▁▁▁": 1618,
      "▁local": 1619,
      "play": 1620,
      "ients": 1621,
      ";\r": 1622,
      "▁power": 1623,
      "af": 1624,
      "▁imp": 1625,
      "Ch": 1626,
      "ission": 1627,
      "ml": 1628,
      "ention": 1629,
      "▁change": 1630,
      "▁May": 1631,
      "ivid": 1632,
      "px": 1633,
      "roll": 1634,
      "Com": 1635,
      "aster": 1636,
      "▁chang": 1637,
      "▁win": 1638,
      "Res": 1639,
      "AM": 1640,
      "▁thought": 1641,
      "ories": 1642,
      "▁dr": 1643,
      "▁belie": 1644,
      "not": 1645,
      "▁light": 1646,
      "▁left": 1647,
      "iron": 1648,
      "▁job": 1649,
      "▁Do": 1650,
      "umm": 1651,
      "▁within": 1652,
      "List": 1653,
      "ane": 1654,
      "▁vers": 1655,
      "▁stat": 1656,
      "▁against": 1657,
      "▁room": 1658,
      "def": 1659,
      "alse": 1660,
      "LE": 1661,
      "▁Am": 1662,
      "▁dem": 1663,
      "rap": 1664,
      "▁Cont": 1665,
      "sw": 1666,
      "▁sw": 1667,
      "▁Gr": 1668,
      "▁pop": 1669,
      "ideo": 1670,
      "ley": 1671,
      "▁En": 1672,
      "▁thing": 1673,
      "\");": 1674,
      "AS": 1675,
      "▁following": 1676,
      "▁invest": 1677,
      "▁private": 1678,
      "itions": 1679,
      "▁away": 1680,
      "▁beh": 1681,
      "illion": 1682,
      "anks": 1683,
      "▁file": 1684,
      "ability": 1685,
      "▁working": 1686,
      "▁intern": 1687,
      "vert": 1688,
      "▁phot": 1689,
      "▁leg": 1690,
      "▁site": 1691,
      "▁writ": 1692,
      "▁term": 1693,
      "ently": 1694,
      "▁bro": 1695,
      "▁looking": 1696,
      "ised": 1697,
      "><": 1698,
      "▁why": 1699,
      "▁access": 1700,
      "▁event": 1701,
      "ey": 1702,
      "ift": 1703,
      "ains": 1704,
      "▁tem": 1705,
      "joy": 1706,
      "}\\": 1707,
      "}$": 1708,
      "ava": 1709,
      "por": 1710,
      "ots": 1711,
      "ches": 1712,
      "date": 1713,
      "▁Can": 1714,
      "Th": 1715,
      "▁ve": 1716,
      "▁One": 1717,
      "span": 1718,
      "ards": 1719,
      "ential": 1720,
      "this": 1721,
      "utes": 1722,
      "upp": 1723,
      "▁applic": 1724,
      "▁Des": 1725,
      "vious": 1726,
      "itional": 1727,
      "rop": 1728,
      "ateg": 1729,
      "\")": 1730,
      "▁aff": 1731,
      "It": 1732,
      "▁conn": 1733,
      "lish": 1734,
      "▁Christ": 1735,
      "hn": 1736,
      "▁area": 1737,
      "ike": 1738,
      "▁provide": 1739,
      "gle": 1740,
      "▁prom": 1741,
      "pped": 1742,
      "▁eng": 1743,
      "▁present": 1744,
      "▁pack": 1745,
      "oci": 1746,
      "▁cond": 1747,
      "▁Co": 1748,
      "▁law": 1749,
      "irl": 1750,
      "▁sal": 1751,
      "ready": 1752,
      "ending": 1753,
      "▁exc": 1754,
      "▁kind": 1755,
      "uild": 1756,
      "▁webs": 1757,
      "eter": 1758,
      "ids": 1759,
      "elt": 1760,
      "],": 1761,
      "▁today": 1762,
      "▁activ": 1763,
      "▁ben": 1764,
      "ands": 1765,
      "aces": 1766,
      "▁making": 1767,
      "▁rese": 1768,
      "▁group": 1769,
      "▁cap": 1770,
      "▁meet": 1771,
      "idd": 1772,
      "duct": 1773,
      "^{": 1774,
      "▁review": 1775,
      "ries": 1776,
      "erence": 1777,
      "ule": 1778,
      "▁Cent": 1779,
      "pping": 1780,
      "▁Br": 1781,
      "▁gover": 1782,
      "time": 1783,
      "IC": 1784,
      "▁says": 1785,
      "uper": 1786,
      "ister": 1787,
      "!!": 1788,
      "▁Car": 1789,
      "ency": 1790,
      "ength": 1791,
      "ills": 1792,
      "td": 1793,
      "ervice": 1794,
      "▁services": 1795,
      "▁hum": 1796,
      "▁key": 1797,
      "▁buy": 1798,
      "▁food": 1799,
      "▁dev": 1800,
      "▁create": 1801,
      "▁understand": 1802,
      "username": 1803,
      "▁special": 1804,
      "▁didn": 1805,
      "▁money": 1806,
      "▁allow": 1807,
      "▁children": 1808,
      "▁Che": 1809,
      "ler": 1810,
      "▁method": 1811,
      "▁bit": 1812,
      "▁course": 1813,
      "idth": 1814,
      "▁Eng": 1815,
      "une": 1816,
      "▁until": 1817,
      "ration": 1818,
      "comment": 1819,
      "dd": 1820,
      "arget": 1821,
      "lete": 1822,
      "▁done": 1823,
      "▁night": 1824,
      "uf": 1825,
      "▁size": 1826,
      "opy": 1827,
      "▁non": 1828,
      "ived": 1829,
      "gin": 1830,
      "ird": 1831,
      "▁ann": 1832,
      "▁four": 1833,
      "▁Im": 1834,
      "▁having": 1835,
      "▁times": 1836,
      "osed": 1837,
      "ams": 1838,
      "enn": 1839,
      "▁Ro": 1840,
      "mod": 1841,
      "ination": 1842,
      "ither": 1843,
      "▁page": 1844,
      "AC": 1845,
      "ique": 1846,
      "room": 1847,
      "▁hist": 1848,
      "ocus": 1849,
      "▁field": 1850,
      "▁final": 1851,
      "====": 1852,
      "▁men": 1853,
      "ively": 1854,
      "aper": 1855,
      "itor": 1856,
      "nment": 1857,
      "▁null": 1858,
      "▁success": 1859,
      "ury": 1860,
      "mber": 1861,
      "side": 1862,
      "▁record": 1863,
      "▁already": 1864,
      "▁tell": 1865,
      "▁Our": 1866,
      "▁static": 1867,
      "aterial": 1868,
      "▁By": 1869,
      "▁Ste": 1870,
      "Ar": 1871,
      "atures": 1872,
      "▁house": 1873,
      "htt": 1874,
      "▁Qu": 1875,
      "itive": 1876,
      "▁require": 1877,
      "▁self": 1878,
      "acy": 1879,
      "▁text": 1880,
      "str": 1881,
      "▁bas": 1882,
      "ips": 1883,
      "aring": 1884,
      "urs": 1885,
      "ED": 1886,
      "aps": 1887,
      "▁pract": 1888,
      "▁mar": 1889,
      "▁Not": 1890,
      "ai": 1891,
      "▁along": 1892,
      "fo": 1893,
      "ci": 1894,
      "▁enough": 1895,
      "ground": 1896,
      "▁mean": 1897,
      "▁Ass": 1898,
      "▁Ab": 1899,
      "▁problem": 1900,
      "Data": 1901,
      "▁past": 1902,
      "▁possible": 1903,
      "oice": 1904,
      "me": 1905,
      "▁lik": 1906,
      "▁These": 1907,
      "▁ret": 1908,
      "▁short": 1909,
      "▁enjoy": 1910,
      "▁side": 1911,
      "ney": 1912,
      "▁Your": 1913,
      "▁far": 1914,
      "alf": 1915,
      "iety": 1916,
      "data": 1917,
      "▁lim": 1918,
      "▁body": 1919,
      "▁impro": 1920,
      "ended": 1921,
      "iles": 1922,
      "cle": 1923,
      "▁▁▁▁▁▁▁▁▁▁▁▁▁▁": 1924,
      "▁toget": 1925,
      "▁together": 1926,
      "▁large": 1927,
      "reg": 1928,
      "fect": 1929,
      "▁account": 1930,
      "viron": 1931,
      "▁log": 1932,
      "▁net": 1933,
      "▁mult": 1934,
      "▁students": 1935,
      "▁creat": 1936,
      "▁actually": 1937,
      "▁example": 1938,
      "leg": 1939,
      "▁learn": 1940,
      "ung": 1941,
      "ising": 1942,
      "▁God": 1943,
      "▁typ": 1944,
      "▁University": 1945,
      "▁move": 1946,
      "ched": 1947,
      "▁dri": 1948,
      "veral": 1949,
      "▁talk": 1950,
      "▁saf": 1951,
      "▁getting": 1952,
      "▁visit": 1953,
      "▁ever": 1954,
      "ror": 1955,
      "ache": 1956,
      "iver": 1957,
      "uro": 1958,
      "▁po": 1959,
      "▁called": 1960,
      "▁though": 1961,
      "▁stre": 1962,
      "▁break": 1963,
      "ured": 1964,
      "▁doesn": 1965,
      "▁based": 1966,
      "▁Fl": 1967,
      "▁fac": 1968,
      "egin": 1969,
      "aim": 1970,
      "aff": 1971,
      "▁often": 1972,
      "▁anal": 1973,
      "▁Med": 1974,
      "▁certain": 1975,
      "▁doing": 1976,
      "ored": 1977,
      "bject": 1978,
      "Cont": 1979,
      "▁needs": 1980,
      "▁However": 1981,
      "conom": 1982,
      "▁After": 1983,
      "▁air": 1984,
      "▁makes": 1985,
      "(\\": 1986,
      "▁control": 1987,
      "▁pain": 1988,
      "▁mom": 1989,
      "▁employ": 1990,
      "▁▁▁▁▁": 1991,
      "resent": 1992,
      "ividual": 1993,
      "▁include": 1994,
      "ene": 1995,
      "ides": 1996,
      "head": 1997,
      "▁pot": 1998,
      "▁occ": 1999,
      "▁soft": 2000,
      "▁doc": 2001,
      "SE": 2002,
      "ajor": 2003,
      "▁works": 2004,
      "▁given": 2005,
      "new": 2006,
      "▁fore": 2007,
      "pre": 2008,
      "part": 2009,
      "face": 2010,
      "▁John": 2011,
      "▁object": 2012,
      "ances": 2013,
      "code": 2014,
      "uture": 2015,
      "type": 2016,
      "▁bring": 2017,
      "▁hot": 2018,
      "▁story": 2019,
      "▁arg": 2020,
      "book": 2021,
      "▁women": 2022,
      "cription": 2023,
      "uly": 2024,
      "▁easy": 2025,
      "▁*/": 2026,
      "▁cou": 2027,
      "▁treat": 2028,
      "▁charact": 2029,
      "▁website": 2030,
      "}}": 2031,
      "ources": 2032,
      "▁code": 2033,
      "irt": 2034,
      "▁consider": 2035,
      "fort": 2036,
      "rain": 2037,
      "▁least": 2038,
      "*/": 2039,
      "▁means": 2040,
      "string": 2041,
      "▁model": 2042,
      "▁indust": 2043,
      "▁Add": 2044,
      "ino": 2045,
      "▁specific": 2046,
      "icy": 2047,
      "ording": 2048,
      "▁Inst": 2049,
      "ograph": 2050,
      "key": 2051,
      "ouble": 2052,
      "▁hold": 2053,
      "▁=>": 2054,
      "▁System": 2055,
      "▁season": 2056,
      "▁orig": 2057,
      "▁trad": 2058,
      "▁fav": 2059,
      "▁More": 2060,
      "▁Dr": 2061,
      "▁string": 2062,
      "▁Gu": 2063,
      "▁inc": 2064,
      "▁)": 2065,
      "cont": 2066,
      "util": 2067,
      "rict": 2068,
      "▁offer": 2069,
      "▁become": 2070,
      "▁mind": 2071,
      "RO": 2072,
      "▁beaut": 2073,
      "▁low": 2074,
      "Cl": 2075,
      "▁Me": 2076,
      "▁others": 2077,
      "▁community": 2078,
      "ume": 2079,
      "▁tot": 2080,
      "ulation": 2081,
      "ional": 2082,
      "▁///": 2083,
      "most": 2084,
      "▁products": 2085,
      "▁quality": 2086,
      "vironment": 2087,
      "▁several": 2088,
      "▁once": 2089,
      "▁blog": 2090,
      "Col": 2091,
      "));": 2092,
      "▁prob": 2093,
      "):": 2094,
      "sel": 2095,
      "▁Pol": 2096,
      "osp": 2097,
      "▁step": 2098,
      "org": 2099,
      "umn": 2100,
      "▁wind": 2101,
      "IS": 2102,
      "cal": 2103,
      "▁Post": 2104,
      "▁Now": 2105,
      "▁String": 2106,
      "ION": 2107,
      "LL": 2108,
      "▁results": 2109,
      "********": 2110,
      "▁yet": 2111,
      "▁individual": 2112,
      "Get": 2113,
      "].": 2114,
      "▁struct": 2115,
      "▁research": 2116,
      "▁ess": 2117,
      "▁Get": 2118,
      "▁came": 2119,
      "pect": 2120,
      "▁!=": 2121,
      "wh": 2122,
      "size": 2123,
      "▁deal": 2124,
      "cer": 2125,
      "▁happen": 2126,
      "▁elect": 2127,
      "▁ey": 2128,
      "ones": 2129,
      "▁members": 2130,
      "▁country": 2131,
      "▁...": 2132,
      "log": 2133,
      "begin": 2134,
      "fer": 2135,
      "▁social": 2136,
      "isk": 2137,
      "▁content": 2138,
      "▁particular": 2139,
      "▁live": 2140,
      "▁cal": 2141,
      "urther": 2142,
      "▁%": 2143,
      "▁reason": 2144,
      "ests": 2145,
      "▁benef": 2146,
      "angu": 2147,
      "▁ident": 2148,
      "hing": 2149,
      "amb": 2150,
      "ux": 2151,
      "obal": 2152,
      "includ": 2153,
      "wards": 2154,
      "▁above": 2155,
      "To": 2156,
      "requ": 2157,
      "ffic": 2158,
      "▁focus": 2159,
      "▁offic": 2160,
      "▁Int": 2161,
      "lev": 2162,
      "unic": 2163,
      "▁ago": 2164,
      "▁quick": 2165,
      "oose": 2166,
      "utions": 2167,
      "▁below": 2168,
      "▁music": 2169,
      "CT": 2170,
      "▁video": 2171,
      "oogle": 2172,
      "▁Dis": 2173,
      "▁false": 2174,
      "▁Wor": 2175,
      "▁comes": 2176,
      "▁color": 2177,
      "raft": 2178,
      "▁init": 2179,
      "▁Here": 2180,
      "▁port": 2181,
      "▁price": 2182,
      "▁American": 2183,
      "▁space": 2184,
      "▁},": 2185,
      "▁Intern": 2186,
      "▁fund": 2187,
      "itch": 2188,
      "iful": 2189,
      "▁u": 2190,
      "▁major": 2191,
      "▁young": 2192,
      "ari": 2193,
      "▁flo": 2194,
      "now": 2195,
      "▁started": 2196,
      "ctor": 2197,
      "▁single": 2198,
      "ubl": 2199,
      "▁went": 2200,
      "icro": 2201,
      "▁Ed": 2202,
      "▁across": 2203,
      "▁п": 2204,
      "▁Jan": 2205,
      "▁took": 2206,
      "▁question": 2207,
      "ст": 2208,
      "iter": 2209,
      "param": 2210,
      "▁contact": 2211,
      "▁personal": 2212,
      "▁won": 2213,
      "ables": 2214,
      "▁user": 2215,
      "▁profession": 2216,
      "unch": 2217,
      "ster": 2218,
      "verage": 2219,
      "▁version": 2220,
      "▁vol": 2221,
      "ples": 2222,
      "▁perfect": 2223,
      "ilt": 2224,
      "▁study": 2225,
      "▁Em": 2226,
      "ression": 2227,
      "▁later": 2228,
      "iod": 2229,
      "AP": 2230,
      "eed": 2231,
      "action": 2232,
      "aken": 2233,
      "arning": 2234,
      "▁/*": 2235,
      "curity": 2236,
      "▁Tw": 2237,
      "ights": 2238,
      "list": 2239,
      "▁tre": 2240,
      "ification": 2241,
      "▁complet": 2242,
      "ilar": 2243,
      "▁comb": 2244,
      "▁discuss": 2245,
      "▁redu": 2246,
      "ison": 2247,
      "ager": 2248,
      "▁months": 2249,
      "▁someone": 2250,
      "oon": 2251,
      "▁wond": 2252,
      "▁print": 2253,
      "▁table": 2254,
      "▁Per": 2255,
      "agn": 2256,
      "ules": 2257,
      "ET": 2258,
      "▁cut": 2259,
      "▁invol": 2260,
      "urch": 2261,
      "▁enc": 2262,
      "▁strong": 2263,
      "▁issue": 2264,
      "order": 2265,
      "▁Reg": 2266,
      "▁opport": 2267,
      "View": 2268,
      "iday": 2269,
      "▁id": 2270,
      "▁educ": 2271,
      "▁development": 2272,
      "▁Min": 2273,
      "▁Thanks": 2274,
      "Value": 2275,
      "▁either": 2276,
      "▁city": 2277,
      "▁ant": 2278,
      "▁sound": 2279,
      "▁hours": 2280,
      "ball": 2281,
      "▁error": 2282,
      "arr": 2283,
      "▁future": 2284,
      "ports": 2285,
      "OT": 2286,
      "Set": 2287,
      "▁government": 2288,
      "Tr": 2289,
      "go": 2290,
      "▁material": 2291,
      "ibility": 2292,
      "▁begin": 2293,
      "ply": 2294,
      "▁web": 2295,
      "▁install": 2296,
      "▁Cal": 2297,
      "▁search": 2298,
      "▁Count": 2299,
      "▁hig": 2300,
      "ev": 2301,
      "my": 2302,
      "ends": 2303,
      "ians": 2304,
      "resh": 2305,
      "▁appear": 2306,
      "▁Just": 2307,
      "▁everything": 2308,
      "crib": 2309,
      "▁jo": 2310,
      "▁seen": 2311,
      "▁share": 2312,
      "▁range": 2313,
      "We": 2314,
      "inks": 2315,
      "UT": 2316,
      "▁tool": 2317,
      "ole": 2318,
      "yl": 2319,
      "rew": 2320,
      "▁anything": 2321,
      "▁walk": 2322,
      "▁position": 2323,
      "▁address": 2324,
      "oll": 2325,
      "▁camp": 2326,
      "▁ener": 2327,
      "▁face": 2328,
      "▁Gl": 2329,
      "▁idea": 2330,
      "▁clean": 2331,
      "})": 2332,
      "ops": 2333,
      "▁million": 2334,
      "▁Part": 2335,
      "▁stay": 2336,
      "▁heart": 2337,
      "▁store": 2338,
      "init": 2339,
      "▁repl": 2340,
      "▁expect": 2341,
      "ada": 2342,
      "▁whole": 2343,
      "idence": 2344,
      "▁girl": 2345,
      "ural": 2346,
      "inter": 2347,
      "▁please": 2348,
      "ental": 2349,
      "▁pret": 2350,
      "ony": 2351,
      "cript": 2352,
      "▁early": 2353,
      "▁cell": 2354,
      "().": 2355,
      "ING": 2356,
      "opt": 2357,
      "unction": 2358,
      "▁mot": 2359,
      "uation": 2360,
      "empt": 2361,
      "></": 2362,
      "▁From": 2363,
      "▁sugg": 2364,
      "▁pict": 2365,
      "▁Some": 2366,
      "▁press": 2367,
      "ourn": 2368,
      "▁seem": 2369,
      "ze": 2370,
      "AD": 2371,
      "на": 2372,
      "word": 2373,
      "▁due": 2374,
      ".\r": 2375,
      "▁{\r": 2376,
      "▁relations": 2377,
      "▁bed": 2378,
      "▁pie": 2379,
      "▁trying": 2380,
      "▁sex": 2381,
      "lege": 2382,
      "illed": 2383,
      "▁minutes": 2384,
      "ama": 2385,
      "rect": 2386,
      "earch": 2387,
      "▁known": 2388,
      "▁believe": 2389,
      "▁в": 2390,
      "▁link": 2391,
      "▁bad": 2392,
      "▁select": 2393,
      "▁Comp": 2394,
      "▁conc": 2395,
      "▁miss": 2396,
      "▁friends": 2397,
      "irm": 2398,
      "ners": 2399,
      "▁required": 2400,
      "ags": 2401,
      "▁parent": 2402,
      "rror": 2403,
      "▁compet": 2404,
      "▁black": 2405,
      "umber": 2406,
      "▁red": 2407,
      "ilities": 2408,
      "▁whether": 2409,
      "ites": 2410,
      "ele": 2411,
      "imate": 2412,
      "anies": 2413,
      "▁United": 2414,
      "ators": 2415,
      "▁ear": 2416,
      "eta": 2417,
      "▁Sm": 2418,
      "▁style": 2419,
      "▁options": 2420,
      "rc": 2421,
      "off": 2422,
      "atural": 2423,
      ");\r": 2424,
      "▁mor": 2425,
      "aur": 2426,
      "era": 2427,
      "▁City": 2428,
      "▁told": 2429,
      "ued": 2430,
      "roid": 2431,
      "▁fail": 2432,
      "icense": 2433,
      "test": 2434,
      "cing": 2435,
      "hers": 2436,
      "left": 2437,
      "▁econom": 2438,
      "▁human": 2439,
      "HE": 2440,
      "ocal": 2441,
      "file": 2442,
      "UR": 2443,
      "rown": 2444,
      "▁Mr": 2445,
      "▁org": 2446,
      "pecially": 2447,
      "▁abs": 2448,
      "▁Will": 2449,
      "----------------": 2450,
      "ili": 2451,
      "rm": 2452,
      "▁Mark": 2453,
      "▁•": 2454,
      "}{": 2455,
      "▁games": 2456,
      "▁Oct": 2457,
      "▁amount": 2458,
      "though": 2459,
      "▁Aut": 2460,
      "ried": 2461,
      "▁meas": 2462,
      "▁close": 2463,
      "ged": 2464,
      "▁State": 2465,
      "▁wait": 2466,
      "oved": 2467,
      "bt": 2468,
      "▁lat": 2469,
      "▁simple": 2470,
      "▁Read": 2471,
      "▁issues": 2472,
      "▁Art": 2473,
      "na": 2474,
      "▁Apr": 2475,
      "▁recomm": 2476,
      "js": 2477,
      "▁exist": 2478,
      "box": 2479,
      "▁chall": 2480,
      "▁watch": 2481,
      "ging": 2482,
      "▁taking": 2483,
      "ogn": 2484,
      "value": 2485,
      "Object": 2486,
      "label": 2487,
      "used": 2488,
      "▁news": 2489,
      "▁pri": 2490,
      "ender": 2491,
      "▁super": 2492,
      "_{\\": 2493,
      "▁author": 2494,
      "▁writing": 2495,
      "▁near": 2496,
      "sub": 2497,
      "▁cred": 2498,
      "DE": 2499,
      "▁common": 2500,
      "▁Pe": 2501,
      "▁School": 2502,
      "▁op": 2503,
      "▁Rep": 2504,
      "▁polit": 2505,
      "▁compl": 2506,
      "▁front": 2507,
      "▁El": 2508,
      "▁tax": 2509,
      "ра": 2510,
      "▁half": 2511,
      "▁Please": 2512,
      "ector": 2513,
      "▁purch": 2514,
      "▁Aug": 2515,
      "▁card": 2516,
      "▁request": 2517,
      "▁ens": 2518,
      "ape": 2519,
      "▁five": 2520,
      "umb": 2521,
      "▁path": 2522,
      "▁added": 2523,
      "▁quite": 2524,
      "▁answ": 2525,
      "anguage": 2526,
      "▁pick": 2527,
      "▁percent": 2528,
      "▁Ag": 2529,
      "atus": 2530,
      "url": 2531,
      "class": 2532,
      "ruction": 2533,
      "ude": 2534,
      "▁fall": 2535,
      "▁among": 2536,
      "ни": 2537,
      "ayer": 2538,
      "astic": 2539,
      "▁Stud": 2540,
      "ension": 2541,
      "ires": 2542,
      "▁beautiful": 2543,
      "▁Acc": 2544,
      "▁Euro": 2545,
      "▁features": 2546,
      "▁property": 2547,
      "▁Don": 2548,
      "▁Ge": 2549,
      "pm": 2550,
      "▁cult": 2551,
      "▁energy": 2552,
      "▁Par": 2553,
      "Exception": 2554,
      "▁Mc": 2555,
      "Mod": 2556,
      "▁Dep": 2557,
      "ummary": 2558,
      "▁hope": 2559,
      "irc": 2560,
      "▁probably": 2561,
      "olution": 2562,
      "')": 2563,
      "▁period": 2564,
      "Im": 2565,
      "▁action": 2566,
      "▁points": 2567,
      "fl": 2568,
      "▁almost": 2569,
      "▁ste": 2570,
      "abor": 2571,
      "▁environment": 2572,
      "asing": 2573,
      "rodu": 2574,
      "▁phys": 2575,
      "▁comput": 2576,
      "▁land": 2577,
      "▁respons": 2578,
      "▁target": 2579,
      "urance": 2580,
      "itted": 2581,
      "▁host": 2582,
      "▁While": 2583,
      "▁history": 2584,
      "inc": 2585,
      "▁aw": 2586,
      "elling": 2587,
      "obile": 2588,
      "▁larg": 2589,
      "▁needed": 2590,
      "Text": 2591,
      "▁claim": 2592,
      "bar": 2593,
      "var": 2594,
      "do": 2595,
      "selves": 2596,
      "▁crit": 2597,
      "▁series": 2598,
      "ormal": 2599,
      "▁track": 2600,
      "▁further": 2601,
      "Sh": 2602,
      "▁questions": 2603,
      "▁IN": 2604,
      "▁/**": 2605,
      "iting": 2606,
      "pper": 2607,
      "▁industry": 2608,
      "▁hom": 2609,
      "▁clear": 2610,
      "▁everyone": 2611,
      "icult": 2612,
      "aving": 2613,
      "▁&&": 2614,
      "▁pretty": 2615,
      "ided": 2616,
      "frac": 2617,
      "ained": 2618,
      "▁image": 2619,
      "ana": 2620,
      "ny": 2621,
      "▁email": 2622,
      "▁sent": 2623,
      "▁bar": 2624,
      "▁York": 2625,
      "▁?": 2626,
      "ancial": 2627,
      "▁comment": 2628,
      ")\r": 2629,
      "▁media": 2630,
      "▁vi": 2631,
      "gress": 2632,
      "inary": 2633,
      "da": 2634,
      "lick": 2635,
      "▁wanted": 2636,
      "aid": 2637,
      "▁white": 2638,
      "ledge": 2639,
      "▁:=": 2640,
      "▁Bar": 2641,
      "▁building": 2642,
      "Re": 2643,
      "eral": 2644,
      "▁addition": 2645,
      "▁words": 2646,
      "▁however": 2647,
      "clus": 2648,
      "▁represent": 2649,
      "artment": 2650,
      "IL": 2651,
      "mp": 2652,
      "ysis": 2653,
      "....": 2654,
      "▁Act": 2655,
      "ille": 2656,
      "oud": 2657,
      "▁South": 2658,
      "▁date": 2659,
      "include": 2660,
      "▁companies": 2661,
      "▁previous": 2662,
      "▁Pre": 2663,
      "html": 2664,
      "▁Then": 2665,
      "▁entire": 2666,
      "▁favor": 2667,
      "▁Cor": 2668,
      "chie": 2669,
      "ummer": 2670,
      "▁**": 2671,
      "▁signific": 2672,
      "▁character": 2673,
      "▁rather": 2674,
      ".)": 2675,
      "OM": 2676,
      "▁Us": 2677,
      "▁His": 2678,
      "▁isn": 2679,
      "const": 2680,
      "▁High": 2681,
      "▁nothing": 2682,
      "▁training": 2683,
      "\";": 2684,
      "▁mach": 2685,
      "▁Let": 2686,
      "▁aud": 2687,
      "▁film": 2688,
      "ко": 2689,
      "ta": 2690,
      "ivity": 2691,
      "▁seems": 2692,
      "▁simply": 2693,
      "▁various": 2694,
      "▁World": 2695,
      "iple": 2696,
      "▁Fin": 2697,
      "▁soon": 2698,
      "ival": 2699,
      "chen": 2700,
      "ribut": 2701,
      "ribute": 2702,
      "▁determ": 2703,
      "▁source": 2704,
      "cast": 2705,
      "▁travel": 2706,
      "▁improve": 2707,
      "▁Pres": 2708,
      "itten": 2709,
      "body": 2710,
      "▁Aust": 2711,
      "IM": 2712,
      "▁dig": 2713,
      "ties": 2714,
      "▁taken": 2715,
      "▁der": 2716,
      "ponse": 2717,
      "mit": 2718,
      "Un": 2719,
      "▁necess": 2720,
      "▁National": 2721,
      "▁relationship": 2722,
      "▁similar": 2723,
      "▁changes": 2724,
      "enc": 2725,
      "ilit": 2726,
      "plement": 2727,
      "rug": 2728,
      "istic": 2729,
      "▁complete": 2730,
      "ensive": 2731,
      "▁details": 2732,
      "but": 2733,
      "imal": 2734,
      "▁software": 2735,
      ")$": 2736,
      "▁ver": 2737,
      "▁Off": 2738,
      "но": 2739,
      "rel": 2740,
      "▁clos": 2741,
      "▁article": 2742,
      "field": 2743,
      "▁Of": 2744,
      "▁especially": 2745,
      "US": 2746,
      "▁coming": 2747,
      "▁March": 2748,
      "▁document": 2749,
      "▁suggest": 2750,
      "▁fix": 2751,
      "▁general": 2752,
      "▁foot": 2753,
      "ram": 2754,
      "ises": 2755,
      "▁performance": 2756,
      "ample": 2757,
      "▁message": 2758,
      "atform": 2759,
      "▁North": 2760,
      "];": 2761,
      "____": 2762,
      "▁asked": 2763,
      "▁total": 2764,
      "edd": 2765,
      "By": 2766,
      "onse": 2767,
      "itting": 2768,
      "aging": 2769,
      "hat": 2770,
      "▁likely": 2771,
      "uration": 2772,
      "▁age": 2773,
      "▁с": 2774,
      "▁throw": 2775,
      "▁insp": 2776,
      "▁box": 2777,
      "▁Ser": 2778,
      "▁Sept": 2779,
      "ully": 2780,
      "▁<<": 2781,
      "▁running": 2782,
      "▁Mon": 2783,
      "ottom": 2784,
      "▁Tra": 2785,
      "▁write": 2786,
      "▁Europe": 2787,
      "▁Park": 2788,
      "▁paper": 2789,
      "epend": 2790,
      "▁sat": 2791,
      "++": 2792,
      "eq": 2793,
      "▁download": 2794,
      "▁offers": 2795,
      "▁Feb": 2796,
      "▁describ": 2797,
      "https": 2798,
      "uary": 2799,
      "ees": 2800,
      "▁associ": 2801,
      "▁June": 2802,
      "▁application": 2803,
      "ouch": 2804,
      "▁response": 2805,
      "aged": 2806,
      "▁difficult": 2807,
      "aching": 2808,
      "▁display": 2809,
      "▁continue": 2810,
      "ро": 2811,
      "▁La": 2812,
      "ufact": 2813,
      "▁etc": 2814,
      "▁Free": 2815,
      "▁problems": 2816,
      "▁management": 2817,
      "eks": 2818,
      "▁option": 2819,
      "▁flow": 2820,
      "▁matter": 2821,
      "▁dom": 2822,
      "ithub": 2823,
      "▁base": 2824,
      "▁forward": 2825,
      "▁fig": 2826,
      "▁wonder": 2827,
      "En": 2828,
      "oring": 2829,
      "aced": 2830,
      "▁Up": 2831,
      "gl": 2832,
      "▁cook": 2833,
      "▁accept": 2834,
      "lean": 2835,
      "▁rad": 2836,
      "▁April": 2837,
      "ript": 2838,
      "▁created": 2839,
      "board": 2840,
      "▁mass": 2841,
      "▁sym": 2842,
      "IG": 2843,
      "▁vari": 2844,
      "▁looks": 2845,
      "▁Sim": 2846,
      "▁Gener": 2847,
      "▁cannot": 2848,
      "▁oil": 2849,
      "unk": 2850,
      "File": 2851,
      "bf": 2852,
      "ham": 2853,
      "etimes": 2854,
      "▁provided": 2855,
      "▁max": 2856,
      "yd": 2857,
      "▁effort": 2858,
      "AG": 2859,
      "OL": 2860,
      "▁technology": 2861,
      "▁living": 2862,
      "▁Are": 2863,
      "▁extra": 2864,
      "reed": 2865,
      "▁events": 2866,
      "Requ": 2867,
      "▁reading": 2868,
      "▁gen": 2869,
      "▁ways": 2870,
      "top": 2871,
      "Par": 2872,
      "OS": 2873,
      "ades": 2874,
      "▁List": 2875,
      "rite": 2876,
      "▁stop": 2877,
      "▁via": 2878,
      "Add": 2879,
      "▁particip": 2880,
      "▁moment": 2881,
      "▁background": 2882,
      "ales": 2883,
      "cret": 2884,
      "▁role": 2885,
      "start": 2886,
      "▁feature": 2887,
      "▁inside": 2888,
      "medi": 2889,
      "itter": 2890,
      "▁phone": 2891,
      "Time": 2892,
      "(),": 2893,
      "▁areas": 2894,
      "▁Mod": 2895,
      "izing": 2896,
      "iction": 2897,
      "iddle": 2898,
      "▁yourself": 2899,
      "ober": 2900,
      "▁provides": 2901,
      "▁significant": 2902,
      "▁nice": 2903,
      "▁First": 2904,
      "▁Dav": 2905,
      "▁que": 2906,
      "▁shows": 2907,
      "▁office": 2908,
      "▁subject": 2909,
      "▁bo": 2910,
      "▁staff": 2911,
      "../": 2912,
      "uk": 2913,
      "▁customers": 2914,
      "Int": 2915,
      "▁word": 2916,
      "▁Day": 2917,
      "▁Health": 2918,
      "▁sle": 2919,
      "imum": 2920,
      "pi": 2921,
      "Error": 2922,
      "▁respect": 2923,
      "▁behind": 2924,
      "▁block": 2925,
      "());": 2926,
      "▁exact": 2927,
      "fully": 2928,
      "unities": 2929,
      "user": 2930,
      "▁coun": 2931,
      "▁kids": 2932,
      "▁July": 2933,
      "ached": 2934,
      "down": 2935,
      "oke": 2936,
      "▁||": 2937,
      "ecut": 2938,
      "▁dam": 2939,
      "▁}\r": 2940,
      "uth": 2941,
      "▁match": 2942,
      "Ind": 2943,
      "▁anyone": 2944,
      "ese": 2945,
      "▁infl": 2946,
      "rs": 2947,
      "▁six": 2948,
      "print": 2949,
      "▁See": 2950,
      "▁fire": 2951,
      "▁cover": 2952,
      "▁States": 2953,
      "▁Af": 2954,
      "idge": 2955,
      "▁experien": 2956,
      "▁instead": 2957,
      "▁rate": 2958,
      "▁Her": 2959,
      "light": 2960,
      "weet": 2961,
      "[]": 2962,
      "cite": 2963,
      "nder": 2964,
      "azing": 2965,
      "oph": 2966,
      "▁Out": 2967,
      "▁assist": 2968,
      "minist": 2969,
      "coming": 2970,
      "anced": 2971,
      "UN": 2972,
      "▁Sch": 2973,
      "reet": 2974,
      "aily": 2975,
      "▁takes": 2976,
      "EM": 2977,
      "ij": 2978,
      "▁regard": 2979,
      "▁contain": 2980,
      "github": 2981,
      "////": 2982,
      "▁hon": 2983,
      "▁Sw": 2984,
      "▁network": 2985,
      "ety": 2986,
      "▁href": 2987,
      "ament": 2988,
      "▁coll": 2989,
      "▁cas": 2990,
      "uge": 2991,
      "▁dest": 2992,
      "igned": 2993,
      "▁achie": 2994,
      "▁third": 2995,
      "▁Soc": 2996,
      "ocation": 2997,
      "apt": 2998,
      "▁prim": 2999,
      "error": 3000,
      "▁West": 3001,
      "path": 3002,
      "pha": 3003,
      "define": 3004,
      "atter": 3005,
      "net": 3006,
      "perty": 3007,
      "aker": 3008,
      "overed": 3009,
      "ief": 3010,
      "▁outside": 3011,
      "year": 3012,
      "▁Center": 3013,
      "orage": 3014,
      "▁Red": 3015,
      "▁original": 3016,
      "▁professional": 3017,
      "aul": 3018,
      "▁sn": 3019,
      "PE": 3020,
      "▁risk": 3021,
      "▁happy": 3022,
      "▁loss": 3023,
      "uments": 3024,
      "ublished": 3025,
      "urg": 3026,
      "▁board": 3027,
      "▁expected": 3028,
      "▁ground": 3029,
      "▁Pat": 3030,
      "ica": 3031,
      "▁htt": 3032,
      "agement": 3033,
      "▁Cons": 3034,
      "▁Sk": 3035,
      "▁Also": 3036,
      "Key": 3037,
      "ENT": 3038,
      "mon": 3039,
      "▁});": 3040,
      "▁popular": 3041,
      "▁according": 3042,
      "▁copy": 3043,
      "pose": 3044,
      "bb": 3045,
      "icles": 3046,
      "▁impact": 3047,
      "▁AN": 3048,
      "▁road": 3049,
      "▁increase": 3050,
      "▁natural": 3051,
      "plate": 3052,
      "▁Black": 3053,
      "▁couple": 3054,
      "no": 3055,
      "AB": 3056,
      "erc": 3057,
      "▁sho": 3058,
      "serv": 3059,
      "▁names": 3060,
      "▁leave": 3061,
      "SS": 3062,
      "▁load": 3063,
      "▁higher": 3064,
      "▁Bro": 3065,
      "▁longer": 3066,
      "▁weeks": 3067,
      "▁worth": 3068,
      "tes": 3069,
      "mat": 3070,
      "▁double": 3071,
      "Test": 3072,
      "▁click": 3073,
      "▁fast": 3074,
      "Se": 3075,
      "▁consum": 3076,
      "▁County": 3077,
      "▁party": 3078,
      "▁users": 3079,
      "▁den": 3080,
      "▁std": 3081,
      "roups": 3082,
      "nes": 3083,
      "▁items": 3084,
      "▁title": 3085,
      "▁};": 3086,
      "▁center": 3087,
      "▁saw": 3088,
      "▁usually": 3089,
      "▁choose": 3090,
      "▁death": 3091,
      ">\r": 3092,
      "##": 3093,
      "▁cam": 3094,
      "▁dog": 3095,
      "▁hol": 3096,
      "odes": 3097,
      "▁engine": 3098,
      "ternal": 3099,
      "tings": 3100,
      "met": 3101,
      "▁pan": 3102,
      "Pl": 3103,
      "▁song": 3104,
      "udd": 3105,
      "▁terms": 3106,
      "▁unique": 3107,
      "▁Ne": 3108,
      "▁member": 3109,
      "Info": 3110,
      "▁war": 3111,
      "cial": 3112,
      "State": 3113,
      "▁Thank": 3114,
      "▁August": 3115,
      "▁sense": 3116,
      "amed": 3117,
      "airs": 3118,
      "unt": 3119,
      "state": 3120,
      "sy": 3121,
      "▁House": 3122,
      "▁concern": 3123,
      "▁estab": 3124,
      "eren": 3125,
      "bor": 3126,
      "IP": 3127,
      "▁comments": 3128,
      "aby": 3129,
      "▁indic": 3130,
      "▁package": 3131,
      "▁systems": 3132,
      "▁accom": 3133,
      "▁September": 3134,
      "irth": 3135,
      "$,": 3136,
      "▁Val": 3137,
      "▁Hol": 3138,
      "$.": 3139,
      "▁sort": 3140,
      "▁potential": 3141,
      "▁ready": 3142,
      "ovember": 3143,
      "▁Cr": 3144,
      "▁pred": 3145,
      "▁View": 3146,
      "mas": 3147,
      "bol": 3148,
      "▁autom": 3149,
      "▁Har": 3150,
      "▁recent": 3151,
      "▁implement": 3152,
      "py": 3153,
      "▁October": 3154,
      "▁Wind": 3155,
      "▁obtain": 3156,
      "▁wall": 3157,
      "ceed": 3158,
      "ayout": 3159,
      "▁includes": 3160,
      "CH": 3161,
      "▁regular": 3162,
      "leased": 3163,
      "▁Char": 3164,
      "▁currently": 3165,
      "item": 3166,
      "▁January": 3167,
      "▁Trans": 3168,
      "▁communic": 3169,
      "▁pers": 3170,
      "▁Every": 3171,
      "hold": 3172,
      "iam": 3173,
      "▁fit": 3174,
      "▁pric": 3175,
      "ha": 3176,
      "▁learning": 3177,
      "lier": 3178,
      "▁Great": 3179,
      "▁Review": 3180,
      "▁config": 3181,
      "just": 3182,
      "rup": 3183,
      "▁neg": 3184,
      "▁wrong": 3185,
      "▁screen": 3186,
      "lin": 3187,
      "▁Why": 3188,
      "AME": 3189,
      "▁ill": 3190,
      "▁recogn": 3191,
      "▁received": 3192,
      "▁sil": 3193,
      "▁upon": 3194,
      "public": 3195,
      "▁Set": 3196,
      "ync": 3197,
      "▁PM": 3198,
      "annel": 3199,
      "ride": 3200,
      "▁sens": 3201,
      "▁deg": 3202,
      "mm": 3203,
      "▁Over": 3204,
      "App": 3205,
      "())": 3206,
      "▁Any": 3207,
      "▁Other": 3208,
      "▁myself": 3209,
      "▁connect": 3210,
      "▁knowledge": 3211,
      "hib": 3212,
      "index": 3213,
      "▁values": 3214,
      "▁weight": 3215,
      "cember": 3216,
      "▁ball": 3217,
      "▁held": 3218,
      "ington": 3219,
      "iqu": 3220,
      "▁security": 3221,
      "▁ep": 3222,
      "▁dat": 3223,
      "▁additional": 3224,
      "▁Mus": 3225,
      "▁Well": 3226,
      "lements": 3227,
      "▁upd": 3228,
      "▁financial": 3229,
      "dom": 3230,
      "▁News": 3231,
      "▁treatment": 3232,
      "▁Home": 3233,
      "▁comfort": 3234,
      "========": 3235,
      "aves": 3236,
      "▁Sub": 3237,
      "▁introdu": 3238,
      "▁mention": 3239,
      "ening": 3240,
      "anch": 3241,
      "▁brand": 3242,
      "▁Ac": 3243,
      "core": 3244,
      "urb": 3245,
      "▁collection": 3246,
      "ressed": 3247,
      "▁draw": 3248,
      "▁Hot": 3249,
      "Context": 3250,
      "▁Cour": 3251,
      "bre": 3252,
      "ado": 3253,
      "▁related": 3254,
      "width": 3255,
      "▁squ": 3256,
      "▁solution": 3257,
      "▁Direct": 3258,
      "▁education": 3259,
      "▁cases": 3260,
      "bit": 3261,
      "point": 3262,
      "▁Fe": 3263,
      "▁books": 3264,
      "▁mix": 3265,
      "▁Most": 3266,
      "▁skin": 3267,
      "nov": 3268,
      "pace": 3269,
      "▁£": 3270,
      "▁default": 3271,
      "sk": 3272,
      "го": 3273,
      "hel": 3274,
      "▁apply": 3275,
      "oken": 3276,
      "▁integr": 3277,
      "augh": 3278,
      "Man": 3279,
      "▁correct": 3280,
      "apter": 3281,
      "wise": 3282,
      "▁opportunity": 3283,
      "ship": 3284,
      "▁town": 3285,
      "arter": 3286,
      "▁Rem": 3287,
      "▁Mich": 3288,
      "▁late": 3289,
      "▁November": 3290,
      "▁players": 3291,
      "▁item": 3292,
      "where": 3293,
      "uses": 3294,
      "▁sche": 3295,
      "▁sales": 3296,
      "▁approach": 3297,
      "adem": 3298,
      "ellow": 3299,
      "lim": 3300,
      "▁lower": 3301,
      "ournal": 3302,
      "▁param": 3303,
      "▁cause": 3304,
      "▁ideas": 3305,
      "▁deep": 3306,
      "▁cool": 3307,
      "ipment": 3308,
      "map": 3309,
      "▁div": 3310,
      "elebr": 3311,
      "▁included": 3312,
      "▁contract": 3313,
      "▁recently": 3314,
      "\".": 3315,
      "reate": 3316,
      "FF": 3317,
      "▁woman": 3318,
      "▁…": 3319,
      "▁types": 3320,
      "Request": 3321,
      "▁separ": 3322,
      "▁hair": 3323,
      "▁input": 3324,
      "▁location": 3325,
      "ges": 3326,
      "ocol": 3327,
      "▁Rel": 3328,
      "zz": 3329,
      "▁attack": 3330,
      "▁round": 3331,
      "▁Serv": 3332,
      "aint": 3333,
      "▁prep": 3334,
      "ological": 3335,
      "▁section": 3336,
      "based": 3337,
      "LO": 3338,
      "ibr": 3339,
      "Path": 3340,
      "cul": 3341,
      "▁Best": 3342,
      "▁Good": 3343,
      "place": 3344,
      "▁remember": 3345,
      "▁hit": 3346,
      "▁``": 3347,
      "▁prior": 3348,
      "▁itself": 3349,
      "haps": 3350,
      "color": 3351,
      "▁designed": 3352,
      "hood": 3353,
      "▁America": 3354,
      "▁language": 3355,
      "▁morning": 3356,
      "▁grad": 3357,
      "▁ensure": 3358,
      "ре": 3359,
      "▁nil": 3360,
      "▁credit": 3361,
      "soft": 3362,
      "ague": 3363,
      "▁answer": 3364,
      "▁collect": 3365,
      "▁Net": 3366,
      "▁ones": 3367,
      "▁wasn": 3368,
      "▁conditions": 3369,
      "uel": 3370,
      "▁worked": 3371,
      "▁func": 3372,
      "PI": 3373,
      "▁Google": 3374,
      "▁java": 3375,
      "Ph": 3376,
      "▁policy": 3377,
      "▁dating": 3378,
      "ero": 3379,
      "▁standard": 3380,
      "▁mother": 3381,
      "▁San": 3382,
      "As": 3383,
      "▁feed": 3384,
      "fil": 3385,
      "▁lost": 3386,
      "▁choice": 3387,
      "▁stri": 3388,
      "la": 3389,
      "▁hop": 3390,
      "vis": 3391,
      "▁door": 3392,
      "▁remain": 3393,
      "▁drive": 3394,
      "dis": 3395,
      "▁War": 3396,
      "eters": 3397,
      "▁December": 3398,
      "▁global": 3399,
      "▁latest": 3400,
      "▁Book": 3401,
      "▁built": 3402,
      "▁heav": 3403,
      "▁manufact": 3404,
      "▁throughout": 3405,
      "Config": 3406,
      "▁bal": 3407,
      "▁Sund": 3408,
      "▁production": 3409,
      "▁goes": 3410,
      "▁Ang": 3411,
      "▁practice": 3412,
      "▁Ke": 3413,
      "▁boo": 3414,
      "▁gets": 3415,
      "▁Austral": 3416,
      "}\r": 3417,
      "?\"": 3418,
      "▁President": 3419,
      "▁recommend": 3420,
      "▁growth": 3421,
      "▁cand": 3422,
      "see": 3423,
      "ribution": 3424,
      "▁themselves": 3425,
      "▁Face": 3426,
      "igation": 3427,
      "▁written": 3428,
      "Item": 3429,
      "▁pull": 3430,
      "▁bi": 3431,
      "ming": 3432,
      "alt": 3433,
      "ellent": 3434,
      "▁playing": 3435,
      "▁hor": 3436,
      "▁Supp": 3437,
      "▁hands": 3438,
      "cd": 3439,
      "ester": 3440,
      "▁receive": 3441,
      "uy": 3442,
      "▁official": 3443,
      "▁send": 3444,
      "▁amazing": 3445,
      "▁client": 3446,
      "▁hear": 3447,
      "ruary": 3448,
      "▁boy": 3449,
      "▁License": 3450,
      "▁Friday": 3451,
      "▁Business": 3452,
      "▁release": 3453,
      "Read": 3454,
      "▁compon": 3455,
      "▁son": 3456,
      "aste": 3457,
      "▁TV": 3458,
      "gen": 3459,
      "▁;": 3460,
      "}.": 3461,
      "▁Spec": 3462,
      ",\\": 3463,
      "pack": 3464,
      "▁eyes": 3465,
      "cher": 3466,
      "▁quickly": 3467,
      "atory": 3468,
      "▁English": 3469,
      "▁easily": 3470,
      "mission": 3471,
      "');": 3472,
      "▁save": 3473,
      "▁customer": 3474,
      "▁maintain": 3475,
      "ategory": 3476,
      "▁slow": 3477,
      "▁Ret": 3478,
      "▁cy": 3479,
      "illing": 3480,
      "▁patients": 3481,
      "iment": 3482,
      "▁context": 3483,
      "itchen": 3484,
      "▁tried": 3485,
      "Event": 3486,
      "▁AM": 3487,
      "▁Air": 3488,
      "Service": 3489,
      "▁rout": 3490,
      "Size": 3491,
      "Qu": 3492,
      "▁circ": 3493,
      "wood": 3494,
      "Message": 3495,
      "▁lives": 3496,
      "sem": 3497,
      "▁veh": 3498,
      "pri": 3499,
      "▁teac": 3500,
      "▁interesting": 3501,
      "aign": 3502,
      "Map": 3503,
      "▁Even": 3504,
      "orge": 3505,
      "summary": 3506,
      "Or": 3507,
      "▁__": 3508,
      "ube": 3509,
      "▁behav": 3510,
      "ondon": 3511,
      "▁chance": 3512,
      "▁decision": 3513,
      "asons": 3514,
      "▁Brit": 3515,
      "▁drug": 3516,
      "ipe": 3517,
      "Class": 3518,
      "▁stuff": 3519,
      "inner": 3520,
      "OP": 3521,
      "count": 3522,
      "▁Inter": 3523,
      "TR": 3524,
      "▁Det": 3525,
      "andom": 3526,
      "OD": 3527,
      "initely": 3528,
      "▁felt": 3529,
      "ken": 3530,
      "▁Go": 3531,
      "▁insurance": 3532,
      "▁imm": 3533,
      "▁national": 3534,
      "bert": 3535,
      "▁stra": 3536,
      "▁propos": 3537,
      "osing": 3538,
      "▁cho": 3539,
      "ville": 3540,
      "▁cross": 3541,
      "▁driv": 3542,
      "▁Service": 3543,
      "▁platform": 3544,
      "irit": 3545,
      "ores": 3546,
      "icon": 3547,
      "oper": 3548,
      "▁->": 3549,
      "acing": 3550,
      "▁update": 3551,
      "lock": 3552,
      "CC": 3553,
      "▁avoid": 3554,
      "▁UK": 3555,
      "efore": 3556,
      "▁map": 3557,
      "▁Since": 3558,
      "Array": 3559,
      "▁RE": 3560,
      "equation": 3561,
      "▁activities": 3562,
      "▁sus": 3563,
      "ework": 3564,
      "▁serious": 3565,
      "ults": 3566,
      "▁multiple": 3567,
      "▁Inc": 3568,
      "▁mag": 3569,
      "ocr": 3570,
      "▁attempt": 3571,
      "▁summer": 3572,
      "▁sun": 3573,
      "▁commit": 3574,
      "▁thinking": 3575,
      "oad": 3576,
      "▁leaders": 3577,
      "▁tour": 3578,
      "▁gives": 3579,
      "cil": 3580,
      "▁IS": 3581,
      "▁condition": 3582,
      "▁average": 3583,
      "▁files": 3584,
      "▁meeting": 3585,
      "▁surpr": 3586,
      "▁medical": 3587,
      "▁skills": 3588,
      "▁levels": 3589,
      "▁goal": 3590,
      "vey": 3591,
      "atives": 3592,
      "▁park": 3593,
      "▁sell": 3594,
      "▁favorite": 3595,
      "':": 3596,
      "▁necessary": 3597,
      "▁immedi": 3598,
      "▁prevent": 3599,
      "An": 3600,
      "▁Associ": 3601,
      "▁analysis": 3602,
      "▁projects": 3603,
      "▁parents": 3604,
      "▁blood": 3605,
      "▁February": 3606,
      "▁Satur": 3607,
      "▁extrem": 3608,
      "▁и": 3609,
      "ida": 3610,
      "lient": 3611,
      "▁ability": 3612,
      "band": 3613,
      "▁former": 3614,
      "stance": 3615,
      "▁Phot": 3616,
      "▁Down": 3617,
      "▁Techn": 3618,
      "md": 3619,
      "Log": 3620,
      "ocks": 3621,
      "▁student": 3622,
      "▁plant": 3623,
      "men": 3624,
      "argin": 3625,
      "ography": 3626,
      "▁cat": 3627,
      "';": 3628,
      "▁device": 3629,
      "mark": 3630,
      "like": 3631,
      "▁involved": 3632,
      "urt": 3633,
      "▁inj": 3634,
      "Form": 3635,
      "ements": 3636,
      "▁fresh": 3637,
      "ught": 3638,
      "▁Top": 3639,
      "▁speed": 3640,
      "▁die": 3641,
      "▁о": 3642,
      "omen": 3643,
      "▁groups": 3644,
      "▁protect": 3645,
      "ho": 3646,
      "▁Web": 3647,
      "istry": 3648,
      "▁fine": 3649,
      "attle": 3650,
      "zy": 3651,
      "▁wish": 3652,
      "▁effic": 3653,
      "▁Germ": 3654,
      "hern": 3655,
      "Index": 3656,
      "uit": 3657,
      "▁Afric": 3658,
      "otes": 3659,
      "more": 3660,
      "rix": 3661,
      "\\\\": 3662,
      "But": 3663,
      "▁computer": 3664,
      "▁saying": 3665,
      "▁movie": 3666,
      "oul": 3667,
      "exp": 3668,
      "▁International": 3669,
      "▁parts": 3670,
      "For": 3671,
      "iring": 3672,
      "mathcal": 3673,
      "http": 3674,
      "eal": 3675,
      "ford": 3676,
      "▁sites": 3677,
      "▁roll": 3678,
      "▁rights": 3679,
      "anger": 3680,
      "df": 3681,
      "▁attention": 3682,
      "▁gave": 3683,
      "▁normal": 3684,
      "sec": 3685,
      "((": 3686,
      "▁viol": 3687,
      "▁length": 3688,
      "▁wood": 3689,
      "▁arch": 3690,
      "▁bus": 3691,
      "▁THE": 3692,
      "▁allows": 3693,
      "▁decided": 3694,
      "came": 3695,
      "iding": 3696,
      "▁safe": 3697,
      "idered": 3698,
      "▁bank": 3699,
      "aries": 3700,
      "▁completely": 3701,
      "This": 3702,
      "sequ": 3703,
      "function": 3704,
      "][": 3705,
      "▁player": 3706,
      "▁decl": 3707,
      "▁looked": 3708,
      "▁af": 3709,
      "ULL": 3710,
      "▁cup": 3711,
      "▁touch": 3712,
      "▁knew": 3713,
      "▁mer": 3714,
      "▁detail": 3715,
      "lib": 3716,
      "▁complex": 3717,
      "▁Work": 3718,
      "isf": 3719,
      "▁King": 3720,
      "▁Yes": 3721,
      "ares": 3722,
      "▁heard": 3723,
      "rought": 3724,
      "comes": 3725,
      "▁China": 3726,
      "On": 3727,
      "▁index": 3728,
      "ris": 3729,
      "nown": 3730,
      "wor": 3731,
      "section": 3732,
      "length": 3733,
      "▁challeng": 3734,
      "▁vac": 3735,
      "▁David": 3736,
      "▁career": 3737,
      "amic": 3738,
      "apan": 3739,
      "He": 3740,
      "▁effective": 3741,
      "▁dire": 3742,
      "▁Class": 3743,
      "ius": 3744,
      "▁modern": 3745,
      "▁Street": 3746,
      "ael": 3747,
      "▁speak": 3748,
      "ara": 3749,
      "Is": 3750,
      "abase": 3751,
      "▁fair": 3752,
      "NAME": 3753,
      "change": 3754,
      "▁Saturday": 3755,
      "▁began": 3756,
      "▁Sunday": 3757,
      "▁resources": 3758,
      "▁output": 3759,
      "▁machine": 3760,
      "izes": 3761,
      "ounds": 3762,
      "IV": 3763,
      "▁Mond": 3764,
      "▁dark": 3765,
      "▁Oh": 3766,
      "▁London": 3767,
      "▁fight": 3768,
      "▁became": 3769,
      "▁celebr": 3770,
      "▁piece": 3771,
      "▁##": 3772,
      "icated": 3773,
      "You": 3774,
      "▁maybe": 3775,
      "arden": 3776,
      "duc": 3777,
      "des": 3778,
      "verse": 3779,
      "▁Av": 3780,
      "▁sale": 3781,
      "▁Russ": 3782,
      "▁clients": 3783,
      "▁wide": 3784,
      "▁marketing": 3785,
      "abled": 3786,
      "chan": 3787,
      "enge": 3788,
      "▁Del": 3789,
      "ibly": 3790,
      "De": 3791,
      "alpha": 3792,
      "▁international": 3793,
      "bum": 3794,
      "ersion": 3795,
      "cover": 3796,
      "▁catch": 3797,
      "▁Port": 3798,
      "▁programs": 3799,
      "enty": 3800,
      "▁located": 3801,
      "▁tal": 3802,
      "▁plans": 3803,
      "▁situation": 3804,
      "▁huge": 3805,
      "▁trust": 3806,
      "All": 3807,
      "ancy": 3808,
      "Over": 3809,
      "▁political": 3810,
      "▁directly": 3811,
      "comp": 3812,
      "ри": 3813,
      "Ser": 3814,
      "▁dise": 3815,
      "build": 3816,
      "▁positive": 3817,
      "](": 3818,
      "▁starting": 3819,
      "Field": 3820,
      "▁green": 3821,
      "▁er": 3822,
      "▁fa": 3823,
      "▁limit": 3824,
      "ret": 3825,
      "▁instance": 3826,
      "ML": 3827,
      "▁consist": 3828,
      "▁jud": 3829,
      "▁Facebook": 3830,
      "▁Price": 3831,
      "▁enter": 3832,
      "▁Posted": 3833,
      "▁himself": 3834,
      "Le": 3835,
      "▁Many": 3836,
      "icks": 3837,
      "▁Law": 3838,
      "Node": 3839,
      "▁exactly": 3840,
      "Code": 3841,
      "▁sec": 3842,
      "▁Ob": 3843,
      "▁Coun": 3844,
      "▁Sen": 3845,
      "▁Check": 3846,
      "ва": 3847,
      "ico": 3848,
      "▁photos": 3849,
      "Hand": 3850,
      "iber": 3851,
      "▁Look": 3852,
      "rote": 3853,
      "▁▁▁▁▁▁▁▁▁": 3854,
      "}(": 3855,
      "icrosoft": 3856,
      "link": 3857,
      "▁sleep": 3858,
      "▁reported": 3859,
      "elcome": 3860,
      "▁sometimes": 3861,
      "▁Time": 3862,
      "****************": 3863,
      "▁II": 3864,
      "udget": 3865,
      "▁Like": 3866,
      "▁absol": 3867,
      "rupt": 3868,
      "▁Ben": 3869,
      "▁note": 3870,
      "▁Department": 3871,
      "ategy": 3872,
      "roller": 3873,
      "▁gold": 3874,
      "▁benefits": 3875,
      "ospital": 3876,
      "▁convers": 3877,
      "uffer": 3878,
      "▁leading": 3879,
      "▁shown": 3880,
      "CE": 3881,
      "▁court": 3882,
      "▁Design": 3883,
      "aches": 3884,
      "▁mess": 3885,
      "▁Group": 3886,
      "▁India": 3887,
      "▁considered": 3888,
      "ederal": 3889,
      "▁costs": 3890,
      "reci": 3891,
      "▁server": 3892,
      "Def": 3893,
      "▁images": 3894,
      "▁Public": 3895,
      "}^": 3896,
      "▁sold": 3897,
      "▁giving": 3898,
      "▁mid": 3899,
      "gar": 3900,
      "▁Use": 3901,
      "▁variety": 3902,
      "._": 3903,
      "▁charg": 3904,
      "elta": 3905,
      "acity": 3906,
      "▁stock": 3907,
      "▁Open": 3908,
      "▁certainly": 3909,
      "▁Green": 3910,
      "▁emer": 3911,
      "▁encour": 3912,
      "▁White": 3913,
      "sych": 3914,
      "])": 3915,
      "Des": 3916,
      "▁width": 3917,
      "▁qual": 3918,
      "▁difference": 3919,
      "Al": 3920,
      "trans": 3921,
      "▁Dist": 3922,
      "▁Def": 3923,
      "itude": 3924,
      "doc": 3925,
      "▁ten": 3926,
      "▁emb": 3927,
      "▁turned": 3928,
      "▁assert": 3929,
      "▁Ref": 3930,
      "▁status": 3931,
      "▁Love": 3932,
      "то": 3933,
      "▁mobile": 3934,
      "▁Paul": 3935,
      "ooth": 3936,
      "ui": 3937,
      "▁Tod": 3938,
      "▁countries": 3939,
      "▁About": 3940,
      "▁Services": 3941,
      "oms": 3942,
      "▁picture": 3943,
      "▁states": 3944,
      "resp": 3945,
      "▁daily": 3946,
      "gs": 3947,
      "▁pattern": 3948,
      "▁initial": 3949,
      "hand": 3950,
      "config": 3951,
      "Of": 3952,
      "▁definitely": 3953,
      "▁Jack": 3954,
      "ga": 3955,
      "ald": 3956,
      "▁Test": 3957,
      "mercial": 3958,
      "amily": 3959,
      "▁Calif": 3960,
      "▁Dem": 3961,
      "▁pm": 3962,
      "▁Prof": 3963,
      "▁vict": 3964,
      "▁rev": 3965,
      "irtual": 3966,
      "ishing": 3967,
      "▁dro": 3968,
      "▁window": 3969,
      "▁suff": 3970,
      "▁tools": 3971,
      "▁tim": 3972,
      "▁dead": 3973,
      "Ent": 3974,
      "▁band": 3975,
      "▁Wash": 3976,
      "sl": 3977,
      "▁Data": 3978,
      "▁streng": 3979,
      "▁CO": 3980,
      "ли": 3981,
      "▁Ant": 3982,
      "uate": 3983,
      "▁```": 3984,
      "▁Christmas": 3985,
      "sole": 3986,
      "▁effects": 3987,
      "▁played": 3988,
      "▁published": 3989,
      "osition": 3990,
      "pty": 3991,
      "▁thanks": 3992,
      "edding": 3993,
      "ambda": 3994,
      "▁Mor": 3995,
      "▁Monday": 3996,
      "inding": 3997,
      "▁observ": 3998,
      "With": 3999,
      "▁Product": 4000,
      "▁capt": 4001,
      "erve": 4002,
      "BC": 4003,
      "▁neigh": 4004,
      "▁()": 4005,
      "▁Last": 4006,
      "▁finally": 4007,
      "▁Cur": 4008,
      "aly": 4009,
      "▁purchase": 4010,
      "yond": 4011,
      "ato": 4012,
      "▁Mem": 4013,
      "EO": 4014,
      "▁Sol": 4015,
      "ка": 4016,
      "Response": 4017,
      "▁Wed": 4018,
      "▁Rec": 4019,
      "▁liter": 4020,
      "▁valid": 4021,
      "▁Back": 4022,
      "▁hour": 4023,
      "lied": 4024,
      "rang": 4025,
      "za": 4026,
      "▁campaign": 4027,
      "▁Year": 4028,
      "ka": 4029,
      "mail": 4030,
      "▁ST": 4031,
      "▁influ": 4032,
      "api": 4033,
      "pite": 4034,
      "▁towards": 4035,
      "▁Program": 4036,
      "▁);": 4037,
      "olf": 4038,
      "▁restaur": 4039,
      "ios": 4040,
      "▁police": 4041,
      "▁star": 4042,
      "▁safety": 4043,
      "▁stru": 4044,
      "▁father": 4045,
      "▁Bel": 4046,
      "▁legal": 4047,
      "sm": 4048,
      "▁Je": 4049,
      "▁birth": 4050,
      "User": 4051,
      "ils": 4052,
      "Val": 4053,
      "▁region": 4054,
      "CL": 4055,
      "▁Hel": 4056,
      "IR": 4057,
      "”.": 4058,
      "MA": 4059,
      "▁mis": 4060,
      "▁altern": 4061,
      "▁imag": 4062,
      "▁Develop": 4063,
      "New": 4064,
      "▁activity": 4065,
      "eful": 4066,
      "▁General": 4067,
      "▁College": 4068,
      "ornia": 4069,
      "▁lines": 4070,
      "itute": 4071,
      "▁anim": 4072,
      "▁helps": 4073,
      "table": 4074,
      "▁equipment": 4075,
      "EX": 4076,
      "EL": 4077,
      "flow": 4078,
      "rench": 4079,
      "rep": 4080,
      "king": 4081,
      "▁frequ": 4082,
      "istics": 4083,
      "}_": 4084,
      "ен": 4085,
      "Sc": 4086,
      "▁ge": 4087,
      "dev": 4088,
      "▁interested": 4089,
      "▁command": 4090,
      "▁shall": 4091,
      "▁height": 4092,
      "▁led": 4093,
      "case": 4094,
      "▁Once": 4095,
      "het": 4096,
      "ences": 4097,
      "▁Vis": 4098,
      "▁excellent": 4099,
      "▁club": 4100,
      "Up": 4101,
      "▁concept": 4102,
      "gn": 4103,
      "▁uses": 4104,
      "▁physical": 4105,
      "Build": 4106,
      "▁auto": 4107,
      "ributed": 4108,
      "▁nature": 4109,
      "▁element": 4110,
      "java": 4111,
      "align": 4112,
      "active": 4113,
      "▁administ": 4114,
      "gest": 4115,
      "PS": 4116,
      "array": 4117,
      "▁mount": 4118,
      "▁changed": 4119,
      "▁graph": 4120,
      "▁Mo": 4121,
      "▁feeling": 4122,
      "▁ple": 4123,
      "rief": 4124,
      "▁Ev": 4125,
      "▁earn": 4126,
      "▁lack": 4127,
      "▁interview": 4128,
      "▁dream": 4129,
      "▁impl": 4130,
      "▁highly": 4131,
      "▁wonderful": 4132,
      "▁ri": 4133,
      "▁digital": 4134,
      "ocket": 4135,
      "▁Market": 4136,
      "UL": 4137,
      "with": 4138,
      "Not": 4139,
      "node": 4140,
      "▁warm": 4141,
      "lt": 4142,
      "='": 4143,
      "▁places": 4144,
      "nb": 4145,
      "Out": 4146,
      "iant": 4147,
      "▁numbers": 4148,
      "▁Make": 4149,
      "▁Japan": 4150,
      "▁aware": 4151,
      "▁util": 4152,
      "json": 4153,
      "No": 4154,
      "▁Windows": 4155,
      "itution": 4156,
      "imately": 4157,
      "ened": 4158,
      "▁sem": 4159,
      "arily": 4160,
      "▁Date": 4161,
      "mitted": 4162,
      "▁bottom": 4163,
      "tee": 4164,
      "▁д": 4165,
      "▁reve": 4166,
      "▁wrote": 4167,
      "Model": 4168,
      "erences": 4169,
      "▁Gold": 4170,
      "▁blue": 4171,
      "content": 4172,
      "▁trip": 4173,
      "And": 4174,
      "ilies": 4175,
      "ounced": 4176,
      "▁structure": 4177,
      "using": 4178,
      "▁eat": 4179,
      "▁floor": 4180,
      "▁reviews": 4181,
      "▁brought": 4182,
      "▁Pal": 4183,
      "▁Educ": 4184,
      "▁Click": 4185,
      "▁rent": 4186,
      "rad": 4187,
      "▁Found": 4188,
      "▁bath": 4189,
      "~\\": 4190,
      "▁Mac": 4191,
      "▁Log": 4192,
      "▁broad": 4193,
      "▁progress": 4194,
      "▁reach": 4195,
      "▁Research": 4196,
      "▁active": 4197,
      "ech": 4198,
      "▁East": 4199,
      "ruit": 4200,
      "▁Online": 4201,
      "run": 4202,
      "▁Dan": 4203,
      "rive": 4204,
      "▁prem": 4205,
      "▁stage": 4206,
      "ependent": 4207,
      "▁providing": 4208,
      "▁inform": 4209,
      "▁models": 4210,
      "▁carry": 4211,
      "▁occur": 4212,
      "▁deb": 4213,
      "Ref": 4214,
      "▁fully": 4215,
      "▁released": 4216,
      "▁temper": 4217,
      "▁associated": 4218,
      "CO": 4219,
      "▁thank": 4220,
      "▁tick": 4221,
      "▁methods": 4222,
      "▁Att": 4223,
      "▁wants": 4224,
      "▁creating": 4225,
      "idents": 4226,
      "▁fem": 4227,
      "vest": 4228,
      "Equ": 4229,
      "▁conduct": 4230,
      "▁internet": 4231,
      "▁measure": 4232,
      "ipping": 4233,
      "▁Information": 4234,
      "▁advant": 4235,
      "cel": 4236,
      "▁moving": 4237,
      "▁info": 4238,
      "ication": 4239,
      "▁row": 4240,
      "▁prices": 4241,
      "▁stream": 4242,
      "ffee": 4243,
      "rie": 4244,
      "ashion": 4245,
      "▁California": 4246,
      "▁baby": 4247,
      "atever": 4248,
      "lication": 4249,
      "▁achieve": 4250,
      "▁successful": 4251,
      "OW": 4252,
      "itable": 4253,
      "asc": 4254,
      "ivery": 4255,
      "▁eval": 4256,
      "iance": 4257,
      "xy": 4258,
      "▁organization": 4259,
      "Title": 4260,
      "▁satisf": 4261,
      "▁college": 4262,
      "▁wife": 4263,
      "omb": 4264,
      "▁straight": 4265,
      "▁lif": 4266,
      "▁libr": 4267,
      "house": 4268,
      "▁dou": 4269,
      "▁individuals": 4270,
      "▁на": 4271,
      "▁stories": 4272,
      "info": 4273,
      "▁Hist": 4274,
      "▁spend": 4275,
      "▁Jes": 4276,
      "max": 4277,
      "▁button": 4278,
      "rial": 4279,
      "▁sav": 4280,
      "▁respond": 4281,
      "inn": 4282,
      "▁>>": 4283,
      "▁arriv": 4284,
      "IF": 4285,
      "▁Mat": 4286,
      "та": 4287,
      "▁hotel": 4288,
      "ль": 4289,
      "▁planning": 4290,
      "ivil": 4291,
      "▁brow": 4292,
      "={": 4293,
      "▁ded": 4294,
      "▁apart": 4295,
      "▁acqu": 4296,
      "▁couldn": 4297,
      "▁(!": 4298,
      "Count": 4299,
      "▁border": 4300,
      "▁solutions": 4301,
      "input": 4302,
      "hol": 4303,
      "▁Thurs": 4304,
      "){": 4305,
      "▁»": 4306,
      "▁grand": 4307,
      "ulations": 4308,
      "▁handle": 4309,
      "=\\": 4310,
      "▁Cam": 4311,
      "nect": 4312,
      "▁statement": 4313,
      "wide": 4314,
      "iny": 4315,
      "miss": 4316,
      "▁Fil": 4317,
      "▁president": 4318,
      "Element": 4319,
      "lying": 4320,
      "▁materials": 4321,
      "▁Dec": 4322,
      "itation": 4323,
      "▁Form": 4324,
      "▁cert": 4325,
      "▁du": 4326,
      "eria": 4327,
      "▁pages": 4328,
      "▁Big": 4329,
      "▁agree": 4330,
      "ula": 4331,
      "rast": 4332,
      "▁allowed": 4333,
      "▁plus": 4334,
      "▁limited": 4335,
      "▁OR": 4336,
      "mar": 4337,
      "▁constant": 4338,
      "▁appreci": 4339,
      "▁evidence": 4340,
      "▁bool": 4341,
      "igma": 4342,
      "▁People": 4343,
      "loat": 4344,
      "▁ter": 4345,
      "▁gas": 4346,
      "▁dry": 4347,
      "▁Tues": 4348,
      "▁Gover": 4349,
      "aughter": 4350,
      "ously": 4351,
      "▁Bre": 4352,
      ")\\": 4353,
      "Be": 4354,
      "▁photo": 4355,
      "▁talking": 4356,
      "bon": 4357,
      "▁Sing": 4358,
      "▁prec": 4359,
      "▁firm": 4360,
      "▁fat": 4361,
      "▁rock": 4362,
      "aling": 4363,
      "Client": 4364,
      "arant": 4365,
      "create": 4366,
      "▁demon": 4367,
      "▁van": 4368,
      "▁setting": 4369,
      "▁connection": 4370,
      "▁middle": 4371,
      "▁Ann": 4372,
      "▁Whe": 4373,
      "lor": 4374,
      "['": 4375,
      "▁spent": 4376,
      "▁developed": 4377,
      "▁OF": 4378,
      "▁Have": 4379,
      "inate": 4380,
      "▁beginning": 4381,
      "▁unit": 4382,
      "eline": 4383,
      "▁pow": 4384,
      "▁format": 4385,
      "plit": 4386,
      "▁pen": 4387,
      "▁regist": 4388,
      "▁feet": 4389,
      "▁expert": 4390,
      "▁Although": 4391,
      "call": 4392,
      "▁ID": 4393,
      "▁Met": 4394,
      "▁loved": 4395,
      "amma": 4396,
      "ла": 4397,
      "▁miles": 4398,
      "isions": 4399,
      "db": 4400,
      "esome": 4401,
      "▁alone": 4402,
      "pan": 4403,
      "cape": 4404,
      "AY": 4405,
      "umer": 4406,
      "▁essay": 4407,
      "encies": 4408,
      "▁demand": 4409,
      "▁exerc": 4410,
      "▁Life": 4411,
      "▁pressure": 4412,
      "▁appropri": 4413,
      "MS": 4414,
      "venue": 4415,
      "host": 4416,
      "({": 4417,
      "▁font": 4418,
      "rey": 4419,
      "unc": 4420,
      "\",\"": 4421,
      "▁Lear": 4422,
      "▁Ir": 4423,
      "TH": 4424,
      "ette": 4425,
      "▁sy": 4426,
      "▁useful": 4427,
      "Att": 4428,
      "▁Find": 4429,
      "▁charge": 4430,
      "\"><": 4431,
      "▁Project": 4432,
      "ying": 4433,
      "▁Sl": 4434,
      "▁Som": 4435,
      "ros": 4436,
      "idden": 4437,
      "▁ult": 4438,
      "asy": 4439,
      "▁paid": 4440,
      "struct": 4441,
      "▁Rich": 4442,
      "src": 4443,
      "▁Su": 4444,
      "▁glass": 4445,
      "▁Play": 4446,
      ">(": 4447,
      "▁understanding": 4448,
      "itect": 4449,
      "inition": 4450,
      "▁column": 4451,
      "▁pictures": 4452,
      "▁Main": 4453,
      "iler": 4454,
      "▁kitchen": 4455,
      "▁depend": 4456,
      "▁weekend": 4457,
      "arrow": 4458,
      "▁James": 4459,
      "▁Hi": 4460,
      "▁prefer": 4461,
      "ords": 4462,
      "▁rules": 4463,
      "fe": 4464,
      "▁Thursday": 4465,
      "▁force": 4466,
      ":\r": 4467,
      "▁histor": 4468,
      "adding": 4469,
      "nesday": 4470,
      "▁solid": 4471,
      "▁although": 4472,
      "▁growing": 4473,
      "ponent": 4474,
      "▁partners": 4475,
      "▁array": 4476,
      "estern": 4477,
      "po": 4478,
      "▁economic": 4479,
      "ATE": 4480,
      "▁gar": 4481,
      "Manager": 4482,
      "▁join": 4483,
      "▁Indian": 4484,
      "ilitary": 4485,
      "Fr": 4486,
      "▁basic": 4487,
      "▁According": 4488,
      "▁Plan": 4489,
      "▁Cong": 4490,
      "SP": 4491,
      "▁Call": 4492,
      "page": 4493,
      "▁emot": 4494,
      "▁culture": 4495,
      "▁dress": 4496,
      "ql": 4497,
      "izer": 4498,
      "thon": 4499,
      "▁guys": 4500,
      "▁except": 4501,
      "check": 4502,
      "▁ing": 4503,
      "▁elements": 4504,
      "▁earlier": 4505,
      "▁hous": 4506,
      "▁healthy": 4507,
      "▁requirements": 4508,
      "▁Sam": 4509,
      "▁uns": 4510,
      "▁Tuesday": 4511,
      "▁Because": 4512,
      "▁cry": 4513,
      "▁applications": 4514,
      "▁eye": 4515,
      "▁task": 4516,
      "▁Sal": 4517,
      "uts": 4518,
      "▁actual": 4519,
      "▁proced": 4520,
      "▁Washington": 4521,
      "inated": 4522,
      "orrow": 4523,
      "▁candid": 4524,
      "▁assess": 4525,
      "▁hus": 4526,
      "▁Custom": 4527,
      "▁execut": 4528,
      "▁Tom": 4529,
      "▁bur": 4530,
      "▁heat": 4531,
      "▁enh": 4532,
      "▁steps": 4533,
      "aled": 4534,
      "▁guess": 4535,
      "▁budget": 4536,
      "ago": 4537,
      "▁Court": 4538,
      "▁rates": 4539,
      "ady": 4540,
      "ideos": 4541,
      "abs": 4542,
      "▁по": 4543,
      "▁opin": 4544,
      "▁sen": 4545,
      "▁meaning": 4546,
      "base": 4547,
      "Ad": 4548,
      "▁selection": 4549,
      "▁remove": 4550,
      "actory": 4551,
      "▁Hall": 4552,
      "ancing": 4553,
      "older": 4554,
      "post": 4555,
      "▁aim": 4556,
      "dule": 4557,
      "▁Internet": 4558,
      "▁purpose": 4559,
      "▁Sur": 4560,
      "▁Road": 4561,
      "▁happened": 4562,
      "force": 4563,
      "prot": 4564,
      "▁traditional": 4565,
      "▁drink": 4566,
      "▁Vol": 4567,
      "▁Care": 4568,
      "ки": 4569,
      "bed": 4570,
      "etic": 4571,
      "▁employees": 4572,
      "▁fab": 4573,
      "▁Michael": 4574,
      "▁shot": 4575,
      "ildren": 4576,
      "▁guide": 4577,
      "ted": 4578,
      "otal": 4579,
      "▁beyond": 4580,
      "hest": 4581,
      "▁voice": 4582,
      "▁ord": 4583,
      "iling": 4584,
      "Ed": 4585,
      "▁notice": 4586,
      "▁gift": 4587,
      "web": 4588,
      "rd": 4589,
      "▁eight": 4590,
      "▁particularly": 4591,
      "▁overall": 4592,
      "▁cash": 4593,
      "▁memory": 4594,
      "▁Wednesday": 4595,
      "▁Tex": 4596,
      "▁race": 4597,
      "amework": 4598,
      "▁Who": 4599,
      "▁pet": 4600,
      "▁basis": 4601,
      "▁trade": 4602,
      "▁whose": 4603,
      "▁spot": 4604,
      "▁girls": 4605,
      "▁schools": 4606,
      "ww": 4607,
      "▁guy": 4608,
      "term": 4609,
      "▁Sun": 4610,
      "Color": 4611,
      "enses": 4612,
      "▁degree": 4613,
      "▁strateg": 4614,
      "▁train": 4615,
      "▁repe": 4616,
      "▁increased": 4617,
      "▁construction": 4618,
      "oving": 4619,
      "▁existing": 4620,
      "Param": 4621,
      "uint": 4622,
      "▁Spe": 4623,
      "ilk": 4624,
      "ae": 4625,
      "▁Build": 4626,
      "▁Two": 4627,
      "▁Type": 4628,
      "mu": 4629,
      "from": 4630,
      "▁Today": 4631,
      "▁album": 4632,
      "If": 4633,
      "▁truly": 4634,
      "▁Canada": 4635,
      "▁node": 4636,
      "At": 4637,
      "▁moved": 4638,
      "▁doll": 4639,
      "oted": 4640,
      "▁dim": 4641,
      "▁pool": 4642,
      "▁Church": 4643,
      ",\r": 4644,
      "ste": 4645,
      "▁username": 4646,
      "▁Office": 4647,
      "▁studies": 4648,
      "arc": 4649,
      "▁Management": 4650,
      "▁Company": 4651,
      "▁sweet": 4652,
      "std": 4653,
      "▁ir": 4654,
      "System": 4655,
      "▁perhaps": 4656,
      "script": 4657,
      "▁compared": 4658,
      "void": 4659,
      "undred": 4660,
      "▁Rom": 4661,
      "▁businesses": 4662,
      "izations": 4663,
      "▁nearly": 4664,
      "orial": 4665,
      "▁relig": 4666,
      "ano": 4667,
      "rt": 4668,
      "▁immediately": 4669,
      "▁gone": 4670,
      "▁smart": 4671,
      "▁increasing": 4672,
      "▁mill": 4673,
      "PL": 4674,
      "▁families": 4675,
      "▁sup": 4676,
      "▁easier": 4677,
      "free": 4678,
      "ptions": 4679,
      "▁continu": 4680,
      "othing": 4681,
      "useum": 4682,
      "▁Str": 4683,
      "▁transl": 4684,
      "▁gra": 4685,
      "▁teams": 4686,
      "▁goals": 4687,
      "▁links": 4688,
      "▁figure": 4689,
      "▁aspect": 4690,
      "▁express": 4691,
      "▁aren": 4692,
      "ronic": 4693,
      "illa": 4694,
      "inger": 4695,
      "pat": 4696,
      "▁Under": 4697,
      "▁Board": 4698,
      "position": 4699,
      "▁passed": 4700,
      "▁trou": 4701,
      "▁storage": 4702,
      "▁nation": 4703,
      "▁reports": 4704,
      "▁Mag": 4705,
      "▁fear": 4706,
      "Result": 4707,
      "▁Each": 4708,
      "▁affect": 4709,
      "iation": 4710,
      "▁shoot": 4711,
      "▁]": 4712,
      "▁Conf": 4713,
      "▁reasons": 4714,
      "?”": 4715,
      "iers": 4716,
      "!!!": 4717,
      "▁agre": 4718,
      "▁haven": 4719,
      "▁il": 4720,
      "Date": 4721,
      "level": 4722,
      "▁thous": 4723,
      "ensions": 4724,
      "▁cells": 4725,
      "▁threat": 4726,
      "▁consult": 4727,
      "▁benefit": 4728,
      "▁tree": 4729,
      "HT": 4730,
      "▁lots": 4731,
      "olar": 4732,
      "▁Rob": 4733,
      "ba": 4734,
      "asure": 4735,
      "DF": 4736,
      "ename": 4737,
      "stract": 4738,
      "▁capital": 4739,
      "▁Mart": 4740,
      "▁sto": 4741,
      "▁surv": 4742,
      "▁deliver": 4743,
      "▁none": 4744,
      "cks": 4745,
      "aming": 4746,
      "ston": 4747,
      "rim": 4748,
      "▁ang": 4749,
      "▁subst": 4750,
      "porate": 4751,
      "▁margin": 4752,
      "▁jobs": 4753,
      "▁+=": 4754,
      "Trans": 4755,
      "▁letter": 4756,
      "atively": 4757,
      "ls": 4758,
      "те": 4759,
      "▁refer": 4760,
      "▁Download": 4761,
      "ona": 4762,
      "▁Start": 4763,
      "▁surface": 4764,
      "▁advice": 4765,
      "▁Show": 4766,
      "fast": 4767,
      "actions": 4768,
      "▁Fore": 4769,
      "▁shop": 4770,
      "azon": 4771,
      "▁disease": 4772,
      "▁spirit": 4773,
      "▁Water": 4774,
      "▁reduce": 4775,
      "▁offered": 4776,
      "▁conv": 4777,
      "▁innov": 4778,
      "▁Note": 4779,
      "▁obvious": 4780,
      "true": 4781,
      "▁church": 4782,
      "▁reflect": 4783,
      "▁poor": 4784,
      "▁entry": 4785,
      "▁Ear": 4786,
      "▁ok": 4787,
      "▁opportunities": 4788,
      "▁$(": 4789,
      "▁wouldn": 4790,
      "title": 4791,
      "cm": 4792,
      "▁cold": 4793,
      "Override": 4794,
      "▁push": 4795,
      "nbsp": 4796,
      "object": 4797,
      "▁fant": 4798,
      "▁Leg": 4799,
      "▁properties": 4800,
      "style": 4801,
      "▁~": 4802,
      "▁session": 4803,
      "rapy": 4804,
      "VER": 4805,
      "oves": 4806,
      "agon": 4807,
      "▁strategy": 4808,
      "group": 4809,
      "lang": 4810,
      "▁Super": 4811,
      "▁transfer": 4812,
      "iques": 4813,
      "known": 4814,
      "▁Mal": 4815,
      "▁European": 4816,
      "▁https": 4817,
      "CA": 4818,
      "▁seeing": 4819,
      "▁label": 4820,
      "current": 4821,
      "▁\\\\": 4822,
      "grad": 4823,
      "▁contains": 4824,
      "▁Another": 4825,
      "▁defined": 4826,
      "▁followed": 4827,
      "▁Where": 4828,
      "phone": 4829,
      "ustr": 4830,
      "▁essential": 4831,
      "ounce": 4832,
      "eds": 4833,
      "ini": 4834,
      "▁bound": 4835,
      "▁investment": 4836,
      "▁Ham": 4837,
      "▁serve": 4838,
      "▁Jesus": 4839,
      "cs": 4840,
      "respond": 4841,
      "roy": 4842,
      "▁Ins": 4843,
      "▁lay": 4844,
      "ifying": 4845,
      "▁multi": 4846,
      "▁mechan": 4847,
      "▁stress": 4848,
      "▁ign": 4849,
      "▁ahead": 4850,
      "▁sequ": 4851,
      "▁commercial": 4852,
      "▁advert": 4853,
      "▁French": 4854,
      "▁adjust": 4855,
      "▁((": 4856,
      "▁cru": 4857,
      "mathbb": 4858,
      "iced": 4859,
      "▁Phil": 4860,
      "Status": 4861,
      "▁slight": 4862,
      "▁luck": 4863,
      "▁cast": 4864,
      "▁greater": 4865,
      "▁farm": 4866,
      "▁Council": 4867,
      "▁challenge": 4868,
      "▁husband": 4869,
      "▁announced": 4870,
      "▁numer": 4871,
      "levant": 4872,
      "▁posted": 4873,
      "▁Twitter": 4874,
      "▁British": 4875,
      "▁File": 4876,
      "mt": 4877,
      "▁strugg": 4878,
      "orry": 4879,
      "Reg": 4880,
      "▁Education": 4881,
      "▁Ber": 4882,
      "ifier": 4883,
      "▁Mary": 4884,
      "▁characters": 4885,
      "▁Club": 4886,
      "▁science": 4887,
      "ota": 4888,
      "▁Power": 4889,
      "▁named": 4890,
      "rics": 4891,
      "▁Color": 4892,
      "Dis": 4893,
      "▁flex": 4894,
      "stream": 4895,
      "▁Lo": 4896,
      "▁owners": 4897,
      "▁spread": 4898,
      "▁primary": 4899,
      "▁drop": 4900,
      "▁produce": 4901,
      "▁Long": 4902,
      "asks": 4903,
      "▁regarding": 4904,
      "▁supply": 4905,
      "friend": 4906,
      "▁Arch": 4907,
      "Image": 4908,
      "▁larger": 4909,
      "▁views": 4910,
      "atically": 4911,
      "▁Thom": 4912,
      "▁accur": 4913,
      "▁Mer": 4914,
      "▁transport": 4915,
      "▁Association": 4916,
      "▁transform": 4917,
      "parent": 4918,
      "apers": 4919,
      "▁Flor": 4920,
      "block": 4921,
      "▁award": 4922,
      "ло": 4923,
      "▁Australia": 4924,
      "image": 4925,
      "▁requires": 4926,
      "Table": 4927,
      "▁fans": 4928,
      "icious": 4929,
      "▁clin": 4930,
      "▁functions": 4931,
      "TS": 4932,
      "sum": 4933,
      "▁wild": 4934,
      "utely": 4935,
      "▁vs": 4936,
      "▁truth": 4937,
      "cell": 4938,
      "ialog": 4939,
      "ле": 4940,
      "▁Key": 4941,
      "fit": 4942,
      "Call": 4943,
      "▁PC": 4944,
      "▁Di": 4945,
      "▁attract": 4946,
      "▁Full": 4947,
      "lear": 4948,
      "lished": 4949,
      "gt": 4950,
      "▁patient": 4951,
      "ett": 4952,
      "▁helped": 4953,
      "▁quarter": 4954,
      "▁vehicle": 4955,
      "▁Special": 4956,
      "▁priv": 4957,
      "osh": 4958,
      "Inter": 4959,
      "yles": 4960,
      "▁Director": 4961,
      "▁Cap": 4962,
      "▁NULL": 4963,
      "▁finished": 4964,
      "▁:)": 4965,
      "ns": 4966,
      "▁sharing": 4967,
      "▁Exp": 4968,
      "_\\": 4969,
      "/*": 4970,
      "▁ut": 4971,
      "▁cancer": 4972,
      "▁devices": 4973,
      "▁Press": 4974,
      "▁brother": 4975,
      "▁Christian": 4976,
      "ipp": 4977,
      "porary": 4978,
      "▁shared": 4979,
      "spect": 4980,
      "▁origin": 4981,
      "▁{\\": 4982,
      "▁Engine": 4983,
      "www": 4984,
      "▁Texas": 4985,
      "▁therefore": 4986,
      "works": 4987,
      "▁/>": 4988,
      "▁finish": 4989,
      "hens": 4990,
      "▁population": 4991,
      "▁master": 4992,
      "TY": 4993,
      "uster": 4994,
      "▁direction": 4995,
      "▁hundred": 4996,
      "▁Description": 4997,
      "eps": 4998,
      "▁exception": 4999,
      "▁Miss": 5000,
      "EST": 5001,
      "▁Republic": 5002,
      "▁Ver": 5003,
      "▁trend": 5004,
      "▁Bo": 5005,
      "From": 5006,
      "▁wat": 5007,
      "▁quant": 5008,
      "▁behavior": 5009,
      "▁android": 5010,
      "▁Fig": 5011,
      "Property": 5012,
      "inder": 5013,
      "▁cit": 5014,
      "▁breat": 5015,
      ".</": 5016,
      "▁score": 5017,
      "▁kept": 5018,
      "▁calls": 5019,
      "ario": 5020,
      "FL": 5021,
      "ulated": 5022,
      "Ass": 5023,
      "▁appropriate": 5024,
      "▁switch": 5025,
      "▁fol": 5026,
      "UM": 5027,
      "ua": 5028,
      "▁extremely": 5029,
      "iled": 5030,
      "▁internal": 5031,
      "▁Bank": 5032,
      "▁analy": 5033,
      "well": 5034,
      "isl": 5035,
      "▁les": 5036,
      "▁classes": 5037,
      "▁described": 5038,
      "▁sett": 5039,
      "▁closed": 5040,
      "▁chem": 5041,
      "▁gain": 5042,
      "unn": 5043,
      "▁damage": 5044,
      "▁surround": 5045,
      "▁camera": 5046,
      "sey": 5047,
      "▁expand": 5048,
      "Gener": 5049,
      "▁calcul": 5050,
      "▁har": 5051,
      "model": 5052,
      "▁counter": 5053,
      "BS": 5054,
      "▁TH": 5055,
      "▁scen": 5056,
      "ffect": 5057,
      "lands": 5058,
      "version": 5059,
      "ugin": 5060,
      "\":\"": 5061,
      "▁born": 5062,
      "▁rat": 5063,
      "rael": 5064,
      "den": 5065,
      "▁thoughts": 5066,
      "jo": 5067,
      "▁NOT": 5068,
      "▁description": 5069,
      "▁з": 5070,
      "▁м": 5071,
      "▁Star": 5072,
      "▁occas": 5073,
      "▁magn": 5074,
      "▁strength": 5075,
      "▁bag": 5076,
      "▁lab": 5077,
      "▁mentioned": 5078,
      "usher": 5079,
      "________": 5080,
      "ourney": 5081,
      "▁reserv": 5082,
      "▁director": 5083,
      "ustain": 5084,
      "ella": 5085,
      "▁Camp": 5086,
      "▁Ext": 5087,
      "▁argument": 5088,
      "▁approx": 5089,
      "▁construct": 5090,
      "▁billion": 5091,
      "▁During": 5092,
      "▁disapp": 5093,
      "▁scient": 5094,
      "▁Science": 5095,
      "inese": 5096,
      "▁reference": 5097,
      "Act": 5098,
      "▁micro": 5099,
      "▁Sil": 5100,
      "}^{": 5101,
      "anned": 5102,
      "▁selected": 5103,
      "CON": 5104,
      "ulate": 5105,
      "▁generally": 5106,
      "Stream": 5107,
      "▁seven": 5108,
      "▁fill": 5109,
      "▁spect": 5110,
      "Line": 5111,
      "▁Step": 5112,
      "▁Fire": 5113,
      "NA": 5114,
      "▁lock": 5115,
      "▁dyn": 5116,
      "▁PR": 5117,
      "ias": 5118,
      "len": 5119,
      "▁IT": 5120,
      "▁estim": 5121,
      "▁Exper": 5122,
      "ibrary": 5123,
      "bo": 5124,
      "▁Soft": 5125,
      "ptr": 5126,
      "▁onto": 5127,
      "▁Alex": 5128,
      "itz": 5129,
      "uman": 5130,
      "▁offering": 5131,
      "uns": 5132,
      "▁opening": 5133,
      "▁Jew": 5134,
      "▁decor": 5135,
      "▁wear": 5136,
      "▁cards": 5137,
      "rian": 5138,
      "▁USA": 5139,
      "▁somew": 5140,
      "▁spring": 5141,
      "▁weather": 5142,
      "▁learned": 5143,
      "iture": 5144,
      "look": 5145,
      "▁Angel": 5146,
      "▁scale": 5147,
      "▁mode": 5148,
      "acement": 5149,
      "ii": 5150,
      "Point": 5151,
      "▁Social": 5152,
      "▁script": 5153,
      "akers": 5154,
      "▁Take": 5155,
      "▁demonstr": 5156,
      "▁tend": 5157,
      "ipped": 5158,
      "▁fixed": 5159,
      "▁mist": 5160,
      "▁happens": 5161,
      "lambda": 5162,
      "antic": 5163,
      "▁tips": 5164,
      "idget": 5165,
      "▁pair": 5166,
      "▁finding": 5167,
      "phi": 5168,
      "ologies": 5169,
      "▁Spring": 5170,
      "▁income": 5171,
      "во": 5172,
      "▁manufacture": 5173,
      "rip": 5174,
      "apping": 5175,
      "▁cheap": 5176,
      "']": 5177,
      "▁whatever": 5178,
      "valid": 5179,
      "▁Lou": 5180,
      "▁Bay": 5181,
      "▁partner": 5182,
      "Group": 5183,
      "▁furn": 5184,
      "▁sports": 5185,
      "▁compar": 5186,
      "rec": 5187,
      "▁Report": 5188,
      "▁waiting": 5189,
      "ses": 5190,
      "▁Jul": 5191,
      "FA": 5192,
      "icine": 5193,
      "▁thus": 5194,
      "▁knows": 5195,
      "не": 5196,
      "unately": 5197,
      "oyal": 5198,
      "▁investig": 5199,
      "▁Blue": 5200,
      "berg": 5201,
      "▁bow": 5202,
      "▁afford": 5203,
      "zen": 5204,
      "▁fan": 5205,
      "▁peace": 5206,
      "anta": 5207,
      "////////": 5208,
      "care": 5209,
      "}_{": 5210,
      "▁adding": 5211,
      "result": 5212,
      "▁Jer": 5213,
      "▁protected": 5214,
      "▁casino": 5215,
      "▁attend": 5216,
      "▁Elect": 5217,
      "fs": 5218,
      "icit": 5219,
      "▁Head": 5220,
      "INT": 5221,
      "▁older": 5222,
      "▁Wood": 5223,
      "ón": 5224,
      "▁End": 5225,
      "▁daughter": 5226,
      "Sub": 5227,
      "▁anti": 5228,
      "vely": 5229,
      "és": 5230,
      "▁mo": 5231,
      "omet": 5232,
      "▁testing": 5233,
      "▁brain": 5234,
      "▁critical": 5235,
      "▁Lat": 5236,
      "▁society": 5237,
      "▁filter": 5238,
      "▁powerful": 5239,
      "local": 5240,
      "▁hy": 5241,
      "▁largest": 5242,
      "▁·": 5243,
      "ixt": 5244,
      "anging": 5245,
      "▁stick": 5246,
      "▁Real": 5247,
      "▁pieces": 5248,
      "▁secret": 5249,
      ":\"": 5250,
      "SC": 5251,
      "▁explain": 5252,
      "▁[]": 5253,
      "night": 5254,
      "▁psych": 5255,
      "▁meant": 5256,
      "▁sam": 5257,
      "▁served": 5258,
      "lies": 5259,
      "isation": 5260,
      "Wind": 5261,
      "▁float": 5262,
      "▁distance": 5263,
      "creen": 5264,
      "how": 5265,
      "hy": 5266,
      "rooms": 5267,
      "▁failed": 5268,
      "PC": 5269,
      "▁topic": 5270,
      "▁Person": 5271,
      "-\\": 5272,
      "▁ton": 5273,
      "icken": 5274,
      "door": 5275,
      "BA": 5276,
      "▁responsible": 5277,
      "▁sand": 5278,
      "▁Food": 5279,
      "usion": 5280,
      "gor": 5281,
      "KE": 5282,
      "emplate": 5283,
      "▁appoint": 5284,
      "Us": 5285,
      "Button": 5286,
      "▁manager": 5287,
      "▁comfortable": 5288,
      "▁guid": 5289,
      "win": 5290,
      "hent": 5291,
      "').": 5292,
      "nection": 5293,
      "▁da": 5294,
      "▁military": 5295,
      "▁library": 5296,
      "▁shape": 5297,
      "▁advantage": 5298,
      "gu": 5299,
      "▁Community": 5300,
      "▁posts": 5301,
      "▁Bra": 5302,
      "ellig": 5303,
      "Method": 5304,
      "main": 5305,
      "▁Object": 5306,
      "▁random": 5307,
      "null": 5308,
      "▁Bet": 5309,
      "Box": 5310,
      "▁completed": 5311,
      "▁electric": 5312,
      "▁bill": 5313,
      "▁election": 5314,
      "DA": 5315,
      "▁tests": 5316,
      "Input": 5317,
      "▁nav": 5318,
      "▁Contact": 5319,
      "▁Music": 5320,
      "ki": 5321,
      "▁promot": 5322,
      "vention": 5323,
      "▁Microsoft": 5324,
      "char": 5325,
      "▁Page": 5326,
      "▁Light": 5327,
      "▁owner": 5328,
      "SI": 5329,
      "▁src": 5330,
      "estival": 5331,
      "ello": 5332,
      "olve": 5333,
      "▁Tim": 5334,
      "▁CON": 5335,
      "PR": 5336,
      "assert": 5337,
      "abin": 5338,
      "▁delivery": 5339,
      "▁heavy": 5340,
      "▁laws": 5341,
      "▁scene": 5342,
      "▁cra": 5343,
      "▁coffee": 5344,
      "vere": 5345,
      "acks": 5346,
      "▁runs": 5347,
      "▁incred": 5348,
      "▁Bill": 5349,
      "ypes": 5350,
      "($": 5351,
      "▁correspond": 5352,
      "▁driving": 5353,
      "▁helping": 5354,
      "itors": 5355,
      "Util": 5356,
      "gment": 5357,
      "▁experienced": 5358,
      "▁rule": 5359,
      "▁homes": 5360,
      "SON": 5361,
      "▁Pet": 5362,
      "▁station": 5363,
      "agram": 5364,
      "▁annual": 5365,
      "▁Apple": 5366,
      "Comm": 5367,
      "ulf": 5368,
      "PA": 5369,
      "▁resource": 5370,
      "▁Nov": 5371,
      "cles": 5372,
      "▁Women": 5373,
      "open": 5374,
      "entially": 5375,
      "rid": 5376,
      "▁tag": 5377,
      "▁core": 5378,
      "▁frame": 5379,
      "▁factors": 5380,
      "uce": 5381,
      "▁wedding": 5382,
      "▁module": 5383,
      "▁determine": 5384,
      "▁movement": 5385,
      "mes": 5386,
      "▁workers": 5387,
      "▁Pay": 5388,
      "ita": 5389,
      "▁faith": 5390,
      "▁sounds": 5391,
      "▁assum": 5392,
      "▁Mount": 5393,
      "▁updated": 5394,
      "Builder": 5395,
      "▁creative": 5396,
      "▁Development": 5397,
      "▁template": 5398,
      "да": 5399,
      "\").": 5400,
      "EC": 5401,
      "▁rank": 5402,
      "▁Const": 5403,
      "unte": 5404,
      "scrib": 5405,
      "▁prote": 5406,
      "▁toward": 5407,
      "▁Prov": 5408,
      "edia": 5409,
      "▁Hand": 5410,
      "▁operation": 5411,
      "▁Buy": 5412,
      "▁Israel": 5413,
      "▁doctor": 5414,
      "ер": 5415,
      "clusion": 5416,
      "▁driver": 5417,
      "eless": 5418,
      "▁Rock": 5419,
      "▁continued": 5420,
      "▁fields": 5421,
      "▁harm": 5422,
      "ublish": 5423,
      "▁ap": 5424,
      "OC": 5425,
      "▁efforts": 5426,
      "▁guarant": 5427,
      "▁Run": 5428,
      "▁Follow": 5429,
      "inct": 5430,
      "▁Next": 5431,
      "▁Lin": 5432,
      "▁predict": 5433,
      "bling": 5434,
      "riage": 5435,
      "essor": 5436,
      "▁collabor": 5437,
      "▁reality": 5438,
      "▁rob": 5439,
      "▁becomes": 5440,
      "▁burn": 5441,
      "▁protection": 5442,
      "▁Mill": 5443,
      "▁manage": 5444,
      "▁flu": 5445,
      "istance": 5446,
      "▁River": 5447,
      "▁established": 5448,
      "▁sch": 5449,
      "▁novel": 5450,
      ")(": 5451,
      "ATION": 5452,
      "cons": 5453,
      "▁CD": 5454,
      "▁arm": 5455,
      "▁sets": 5456,
      "rl": 5457,
      "▁died": 5458,
      "▁na": 5459,
      "▁epis": 5460,
      "▁Id": 5461,
      "▁edge": 5462,
      "▁optim": 5463,
      "▁thread": 5464,
      "Query": 5465,
      "▁missing": 5466,
      "▁Search": 5467,
      "aked": 5468,
      "▁hab": 5469,
      "▁Copy": 5470,
      "weight": 5471,
      "};": 5472,
      "▁Mad": 5473,
      "▁seemed": 5474,
      "▁beg": 5475,
      "standing": 5476,
      "▁interface": 5477,
      "redients": 5478,
      "ums": 5479,
      "▁covered": 5480,
      "default": 5481,
      "▁rot": 5482,
      "▁AND": 5483,
      "▁Family": 5484,
      "▁ideal": 5485,
      "▁Bas": 5486,
      "ampions": 5487,
      "height": 5488,
      "▁videos": 5489,
      "▁establish": 5490,
      "▁['": 5491,
      "▁central": 5492,
      "▁helpful": 5493,
      "▁CA": 5494,
      "▁Bi": 5495,
      "ESS": 5496,
      "ky": 5497,
      "▁otherwise": 5498,
      "▁Enter": 5499,
      "▁forms": 5500,
      "▁vill": 5501,
      "osis": 5502,
      "▁EX": 5503,
      "▁England": 5504,
      "▁sample": 5505,
      "▁entertain": 5506,
      "▁presented": 5507,
      "Select": 5508,
      "▁Only": 5509,
      "▁fre": 5510,
      "▁Mot": 5511,
      "Null": 5512,
      "▁returned": 5513,
      "▁Saf": 5514,
      "mathbf": 5515,
      "Che": 5516,
      "ugh": 5517,
      "▁fashion": 5518,
      "▁Card": 5519,
      "▁à": 5520,
      "▁Lead": 5521,
      "semb": 5522,
      ".'": 5523,
      "riter": 5524,
      "▁Stand": 5525,
      "▁actions": 5526,
      "▁watching": 5527,
      "▁Po": 5528,
      "▁produced": 5529,
      "▁exhib": 5530,
      "▁traffic": 5531,
      "▁Author": 5532,
      "▁database": 5533,
      "ти": 5534,
      "▁forget": 5535,
      "itness": 5536,
      "osure": 5537,
      "▁yes": 5538,
      "▁relax": 5539,
      "ools": 5540,
      "ander": 5541,
      "▁payment": 5542,
      "”,": 5543,
      "▁Vir": 5544,
      "▁▁▁▁▁▁▁▁▁▁▁▁▁": 5545,
      "posit": 5546,
      "\"]": 5547,
      "▁clearly": 5548,
      "▁Er": 5549,
      "▁communication": 5550,
      "▁relevant": 5551,
      "atal": 5552,
      "▁export": 5553,
      "▁showed": 5554,
      "▁Requ": 5555,
      "▁profile": 5556,
      "▁distribution": 5557,
      "▁lose": 5558,
      "▁biggest": 5559,
      "Head": 5560,
      "▁opened": 5561,
      "▁loan": 5562,
      "▁economy": 5563,
      "▁highest": 5564,
      "^{\\": 5565,
      "▁Tre": 5566,
      "▁Men": 5567,
      "pid": 5568,
      "▁monitor": 5569,
      "commit": 5570,
      "long": 5571,
      "▁http": 5572,
      "▁Maybe": 5573,
      "▁appears": 5574,
      "▁street": 5575,
      "▁Chinese": 5576,
      "oma": 5577,
      "big": 5578,
      "▁showing": 5579,
      "▁operations": 5580,
      "select": 5581,
      "▁football": 5582,
      "▁diet": 5583,
      "imb": 5584,
      "ifications": 5585,
      "▁root": 5586,
      "▁separate": 5587,
      "while": 5588,
      "IO": 5589,
      "hi": 5590,
      "▁incor": 5591,
      "▁discussion": 5592,
      "▁Hill": 5593,
      "roud": 5594,
      ")}": 5595,
      "Aut": 5596,
      "iency": 5597,
      "▁Trump": 5598,
      "▁Lord": 5599,
      "ker": 5600,
      "▁Adv": 5601,
      "alle": 5602,
      "▁audience": 5603,
      "beta": 5604,
      "▁Ok": 5605,
      "▁George": 5606,
      "asp": 5607,
      "▁Hotel": 5608,
      "[\"": 5609,
      "▁Smith": 5610,
      "▁Name": 5611,
      "Bl": 5612,
      "olic": 5613,
      "▁evening": 5614,
      "▁Game": 5615,
      "What": 5616,
      "▁Que": 5617,
      "▁shopping": 5618,
      "▁Rad": 5619,
      "▁Institute": 5620,
      "▁Code": 5621,
      "▁Media": 5622,
      "eared": 5623,
      "craft": 5624,
      "▁Sy": 5625,
      "▁federal": 5626,
      "RA": 5627,
      "▁batter": 5628,
      "▁century": 5629,
      "▁::": 5630,
      "▁Carol": 5631,
      "itar": 5632,
      "??": 5633,
      "sg": 5634,
      "ya": 5635,
      "▁prop": 5636,
      "▁Lake": 5637,
      "▁smaller": 5638,
      "tered": 5639,
      "▁keeping": 5640,
      "▁Gen": 5641,
      "▁bul": 5642,
      "oles": 5643,
      "▁flav": 5644,
      "Source": 5645,
      "▁sources": 5646,
      "▁menu": 5647,
      "RL": 5648,
      "▁component": 5649,
      "Create": 5650,
      "▁hospital": 5651,
      "SA": 5652,
      "inst": 5653,
      "othes": 5654,
      "▁grant": 5655,
      "contain": 5656,
      "▁Mel": 5657,
      "gorith": 5658,
      "▁virtual": 5659,
      "iner": 5660,
      "▁temperature": 5661,
      "▁initi": 5662,
      "▁susp": 5663,
      "ala": 5664,
      "rig": 5665,
      "▁journey": 5666,
      "▁Team": 5667,
      "▁Central": 5668,
      "▁Before": 5669,
      "TP": 5670,
      "▁Their": 5671,
      "▁($": 5672,
      "▁efficient": 5673,
      "client": 5674,
      "▁Florida": 5675,
      "ributes": 5676,
      "▁balance": 5677,
      "▁fish": 5678,
      "▁colors": 5679,
      "▁rooms": 5680,
      "▁absolutely": 5681,
      "▁remains": 5682,
      "▁Grand": 5683,
      "▁Brown": 5684,
      "▁Table": 5685,
      "▁bought": 5686,
      "▁govern": 5687,
      "▁nut": 5688,
      "▁placed": 5689,
      "▁records": 5690,
      "Pr": 5691,
      "▁leader": 5692,
      "ensity": 5693,
      "▁б": 5694,
      "▁rich": 5695,
      "apache": 5696,
      "ipes": 5697,
      "ishes": 5698,
      "▁secure": 5699,
      "Rec": 5700,
      "▁earth": 5701,
      "▁welcome": 5702,
      "▁Obama": 5703,
      "▁danger": 5704,
      "tw": 5705,
      "▁follows": 5706,
      "▁egg": 5707,
      "appy": 5708,
      "VE": 5709,
      "▁smooth": 5710,
      "IA": 5711,
      "reek": 5712,
      "query": 5713,
      "Handler": 5714,
      "./": 5715,
      "▁rare": 5716,
      "▁starts": 5717,
      "▁theme": 5718,
      "osen": 5719,
      "▁independent": 5720,
      "▁bra": 5721,
      "clusive": 5722,
      "▁UN": 5723,
      "▁capacity": 5724,
      "QL": 5725,
      "▁mort": 5726,
      "isher": 5727,
      "▁wine": 5728,
      "▁returns": 5729,
      "▁DE": 5730,
      "allery": 5731,
      "▁expression": 5732,
      "▁ur": 5733,
      "▁garden": 5734,
      "▁honest": 5735,
      "▁academ": 5736,
      "▁beat": 5737,
      "▁mission": 5738,
      "message": 5739,
      "▁Commit": 5740,
      "▁Mass": 5741,
      "rate": 5742,
      "▁jump": 5743,
      "ria": 5744,
      "▁Frank": 5745,
      "▁kill": 5746,
      "▁Its": 5747,
      "▁polic": 5748,
      "▁Organ": 5749,
      "alls": 5750,
      "▁conven": 5751,
      "event": 5752,
      "▁negative": 5753,
      "▁Pack": 5754,
      "▁crow": 5755,
      "▁Oper": 5756,
      "adow": 5757,
      "tenance": 5758,
      "mo": 5759,
      "ads": 5760,
      "abilities": 5761,
      "▁Dig": 5762,
      "button": 5763,
      "▁Week": 5764,
      "Content": 5765,
      "▁Support": 5766,
      "▁awesome": 5767,
      "▁Text": 5768,
      "▁Does": 5769,
      "SD": 5770,
      "▁Tor": 5771,
      "▁Chic": 5772,
      "▁Old": 5773,
      "gency": 5774,
      "▁connected": 5775,
      "▁buff": 5776,
      "context": 5777,
      "▁excited": 5778,
      "pc": 5779,
      "rier": 5780,
      "▁caused": 5781,
      "azine": 5782,
      "status": 5783,
      "▁mail": 5784,
      "import": 5785,
      "▁listed": 5786,
      "▁Journal": 5787,
      "▁challenges": 5788,
      "▁minute": 5789,
      "▁presence": 5790,
      "▁cream": 5791,
      "ructure": 5792,
      "▁reli": 5793,
      "▁Word": 5794,
      "!\"": 5795,
      "▁factor": 5796,
      "▁retail": 5797,
      "▁launch": 5798,
      "arp": 5799,
      "▁vote": 5800,
      "▁advance": 5801,
      "▁discover": 5802,
      "▁civil": 5803,
      "▁Foundation": 5804,
      "▁experiences": 5805,
      "▁Africa": 5806,
      "▁prepared": 5807,
      "▁rid": 5808,
      "▁kid": 5809,
      "▁por": 5810,
      "▁restrict": 5811,
      "which": 5812,
      "▁bon": 5813,
      "▁Create": 5814,
      "▁Dev": 5815,
      "▁opinion": 5816,
      "▁ice": 5817,
      "Run": 5818,
      "▁«": 5819,
      "ipal": 5820,
      "++)": 5821,
      "pass": 5822,
      "img": 5823,
      "▁Sign": 5824,
      "ны": 5825,
      "▁Both": 5826,
      "HO": 5827,
      "▁conference": 5828,
      "▁vir": 5829,
      "▁bright": 5830,
      "▁foreign": 5831,
      "▁у": 5832,
      "▁listen": 5833,
      ";&": 5834,
      "▁Mex": 5835,
      "▁changing": 5836,
      "etch": 5837,
      "▁princ": 5838,
      "▁Rest": 5839,
      "ani": 5840,
      "eah": 5841,
      "▁Lu": 5842,
      "draw": 5843,
      "▁NY": 5844,
      "lem": 5845,
      "▁sugar": 5846,
      "▁Max": 5847,
      "iliar": 5848,
      "reedom": 5849,
      "▁eth": 5850,
      "▁Amazon": 5851,
      "▁exec": 5852,
      "▁leaving": 5853,
      "▁Government": 5854,
      "▁console": 5855,
      "▁totally": 5856,
      "ented": 5857,
      "▁Second": 5858,
      "fficient": 5859,
      "PO": 5860,
      "ALL": 5861,
      "▁(\\": 5862,
      "UE": 5863,
      "▁Sand": 5864,
      "false": 5865,
      "▁decide": 5866,
      "rome": 5867,
      "ena": 5868,
      "▁Using": 5869,
      "Token": 5870,
      "▁coord": 5871,
      "▁majority": 5872,
      "ora": 5873,
      "etime": 5874,
      "▁Div": 5875,
      "▁motor": 5876,
      "▁competition": 5877,
      "▁visual": 5878,
      "dir": 5879,
      "▁plenty": 5880,
      "su": 5881,
      "▁buying": 5882,
      "▁teaching": 5883,
      "Fl": 5884,
      "▁winter": 5885,
      "▁applied": 5886,
      "find": 5887,
      "▁exercise": 5888,
      "▁cars": 5889,
      "▁bott": 5890,
      "▁namespace": 5891,
      "▁holiday": 5892,
      "▁restaurant": 5893,
      "\"></": 5894,
      "▁situ": 5895,
      "▁wire": 5896,
      "▁norm": 5897,
      "▁organizations": 5898,
      "▁willing": 5899,
      "▁===": 5900,
      "CD": 5901,
      "nav": 5902,
      "▁cart": 5903,
      "Em": 5904,
      "IST": 5905,
      "▁supported": 5906,
      "ructions": 5907,
      "▁swe": 5908,
      "▁developing": 5909,
      "▁HT": 5910,
      "▁register": 5911,
      "▁schedule": 5912,
      "▁Scott": 5913,
      "▁concent": 5914,
      "spec": 5915,
      "Action": 5916,
      "▁removed": 5917,
      "sim": 5918,
      "Net": 5919,
      "png": 5920,
      "▁adopt": 5921,
      "▁Equ": 5922,
      "▁Beach": 5923,
      "uled": 5924,
      "Fil": 5925,
      "▁Keep": 5926,
      "output": 5927,
      "▁technical": 5928,
      "orter": 5929,
      "▁Den": 5930,
      "▁claims": 5931,
      "▁})": 5932,
      "ups": 5933,
      "append": 5934,
      "▁standards": 5935,
      "▁architect": 5936,
      "uality": 5937,
      "▁ended": 5938,
      "SU": 5939,
      "crete": 5940,
      "raction": 5941,
      "▁Aud": 5942,
      "▁Quest": 5943,
      "FI": 5944,
      "================": 5945,
      "▁pal": 5946,
      "Base": 5947,
      "▁taste": 5948,
      "▁channel": 5949,
      "▁Robert": 5950,
      "float": 5951,
      "▁Commission": 5952,
      "…]": 5953,
      "▁dinner": 5954,
      "ifts": 5955,
      "anged": 5956,
      "sigma": 5957,
      "num": 5958,
      "▁Democr": 5959,
      "▁parties": 5960,
      "Buffer": 5961,
      "ola": 5962,
      "Instance": 5963,
      "▁components": 5964,
      "▁Video": 5965,
      "▁craft": 5966,
      "▁worry": 5967,
      "▁articles": 5968,
      "▁doubt": 5969,
      "▁snow": 5970,
      "▁prepar": 5971,
      "ocolate": 5972,
      "ymbol": 5973,
      "▁theory": 5974,
      "▁alternative": 5975,
      "▁previously": 5976,
      "fol": 5977,
      "va": 5978,
      "▁Jun": 5979,
      "ORT": 5980,
      "▁leaves": 5981,
      "▁Access": 5982,
      "▁Island": 5983,
      "edy": 5984,
      "▁Franc": 5985,
      "▁mut": 5986,
      "▁despite": 5987,
      "essions": 5988,
      "hr": 5989,
      "▁uint": 5990,
      "ja": 5991,
      "oding": 5992,
      "private": 5993,
      "▁é": 5994,
      "▁Fort": 5995,
      "▁shift": 5996,
      "▁recipe": 5997,
      "${": 5998,
      "oses": 5999,
      "oto": 6000,
      "inte": 6001,
      "write": 6002,
      "▁impos": 6003,
      "last": 6004,
      "otic": 6005,
      "▁Ent": 6006,
      "▁raised": 6007,
      "anda": 6008,
      "▁citiz": 6009,
      "▁operator": 6010,
      "Page": 6011,
      "▁diagn": 6012,
      "else": 6013,
      "gers": 6014,
      "EW": 6015,
      "▁managed": 6016,
      "▁estate": 6017,
      "▁Peter": 6018,
      "▁panel": 6019,
      "▁slightly": 6020,
      "▁communities": 6021,
      "▁reached": 6022,
      "▁medium": 6023,
      "▁empty": 6024,
      "fa": 6025,
      "ilde": 6026,
      "▁Security": 6027,
      "▁trial": 6028,
      "▁chair": 6029,
      "ANT": 6030,
      "ategories": 6031,
      "▁cop": 6032,
      "<<": 6033,
      "ilon": 6034,
      "▁funds": 6035,
      "▁continues": 6036,
      "▁Wall": 6037,
      "▁enjoyed": 6038,
      "▁notes": 6039,
      "▁becoming": 6040,
      "oom": 6041,
      "ania": 6042,
      "▁q": 6043,
      "break": 6044,
      "▁journal": 6045,
      "▁discount": 6046,
      "icens": 6047,
      "▁brief": 6048,
      "▁unless": 6049,
      "▁south": 6050,
      "ulture": 6051,
      "▁sched": 6052,
      "▁flat": 6053,
      "▁ring": 6054,
      "DB": 6055,
      "arser": 6056,
      "▁settings": 6057,
      "asket": 6058,
      "####": 6059,
      "▁lovely": 6060,
      "icip": 6061,
      "UI": 6062,
      "space": 6063,
      "My": 6064,
      "▁sector": 6065,
      "hors": 6066,
      "outhern": 6067,
      "▁corner": 6068,
      "▁coverage": 6069,
      "\"),": 6070,
      "▁artist": 6071,
      "▁cris": 6072,
      "▁History": 6073,
      "▁Bur": 6074,
      "source": 6075,
      "▁passion": 6076,
      "esterday": 6077,
      "▁putting": 6078,
      "▁friendly": 6079,
      "▁metal": 6080,
      "Exp": 6081,
      "▁maximum": 6082,
      "uty": 6083,
      "▁symbol": 6084,
      "Default": 6085,
      "▁distributed": 6086,
      "ignment": 6087,
      "SH": 6088,
      "can": 6089,
      "Ext": 6090,
      "▁tit": 6091,
      "▁API": 6092,
      "▁volume": 6093,
      "ython": 6094,
      "VID": 6095,
      "TO": 6096,
      "Sp": 6097,
      "▁asking": 6098,
      "();\r": 6099,
      "▁Mont": 6100,
      "gener": 6101,
      "fortunately": 6102,
      "ushed": 6103,
      "▁writer": 6104,
      "▁Jim": 6105,
      "▁Offic": 6106,
      "Rep": 6107,
      "▁minimum": 6108,
      "rees": 6109,
      "▁France": 6110,
      "▁shut": 6111,
      "▁performed": 6112,
      "closed": 6113,
      "▁plants": 6114,
      "▁neighbor": 6115,
      "▁category": 6116,
      "▁TO": 6117,
      "▁calling": 6118,
      "▁combination": 6119,
      "▁surg": 6120,
      "▁mostly": 6121,
      "▁pref": 6122,
      "▁query": 6123,
      "anges": 6124,
      "▁senior": 6125,
      "▁coach": 6126,
      "(&": 6127,
      "▁Creat": 6128,
      "▁radio": 6129,
      "▁seconds": 6130,
      "mathrm": 6131,
      "▁agreed": 6132,
      "▁Watch": 6133,
      "End": 6134,
      "▁<!": 6135,
      "▁spending": 6136,
      "ections": 6137,
      "▁decre": 6138,
      "▁Land": 6139,
      "bour": 6140,
      "$\\": 6141,
      "▁District": 6142,
      "▁Medical": 6143,
      "▁Source": 6144,
      "▁agreement": 6145,
      "oes": 6146,
      ">>": 6147,
      "▁proud": 6148,
      "grade": 6149,
      "▁parameters": 6150,
      "▁Map": 6151,
      "▁generation": 6152,
      "▁thr": 6153,
      "▁Number": 6154,
      "Number": 6155,
      "▁facilities": 6156,
      "font": 6157,
      "gage": 6158,
      "Start": 6159,
      "udden": 6160,
      "cap": 6161,
      "▁adapt": 6162,
      "pg": 6163,
      "elines": 6164,
      "ims": 6165,
      "▁[…]": 6166,
      "▁sea": 6167,
      "▁mine": 6168,
      "ais": 6169,
      "▁Link": 6170,
      "▁Mult": 6171,
      "▁Network": 6172,
      "estic": 6173,
      "(_": 6174,
      "▁forg": 6175,
      "▁walking": 6176,
      "otten": 6177,
      "▁female": 6178,
      "▁ban": 6179,
      "kin": 6180,
      "▁upp": 6181,
      "▁numerous": 6182,
      "going": 6183,
      "▁teacher": 6184,
      "cohol": 6185,
      "▁nom": 6186,
      "▁perspect": 6187,
      "under": 6188,
      "▁whom": 6189,
      "has": 6190,
      "burg": 6191,
      "endar": 6192,
      "▁Jud": 6193,
      "raint": 6194,
      "ears": 6195,
      "▁ax": 6196,
      "+\\": 6197,
      "▁desk": 6198,
      "▁chat": 6199,
      "▁stars": 6200,
      "▁mir": 6201,
      "▁ju": 6202,
      "ocument": 6203,
      "▁Academ": 6204,
      "▁tables": 6205,
      "▁relationships": 6206,
      "▁С": 6207,
      "unit": 6208,
      "iration": 6209,
      "▁las": 6210,
      "▁sustain": 6211,
      "IB": 6212,
      "▁url": 6213,
      "▁Chicago": 6214,
      "▁possibly": 6215,
      "▁Indust": 6216,
      "ircle": 6217,
      "▁AR": 6218,
      "iences": 6219,
      "▁mur": 6220,
      "▁Return": 6221,
      "hop": 6222,
      "next": 6223,
      "▁famous": 6224,
      "▁Technology": 6225,
      "TER": 6226,
      "▁thousands": 6227,
      "msg": 6228,
      "▁beach": 6229,
      "Layout": 6230,
      "bin": 6231,
      "▁animals": 6232,
      "▁nor": 6233,
      "▁processes": 6234,
      "▁AD": 6235,
      "▁identify": 6236,
      "amin": 6237,
      "▁filled": 6238,
      "▁leads": 6239,
      "▁rain": 6240,
      "▁kick": 6241,
      "▁Software": 6242,
      "amm": 6243,
      "▁department": 6244,
      "emp": 6245,
      "▁padding": 6246,
      "GB": 6247,
      "▁eating": 6248,
      "▁beauty": 6249,
      "▁Those": 6250,
      "▁equal": 6251,
      "▁mouth": 6252,
      "Factory": 6253,
      "▁north": 6254,
      "▁Times": 6255,
      "server": 6256,
      "pol": 6257,
      "▁vision": 6258,
      "▁mental": 6259,
      "^{-": 6260,
      "▁units": 6261,
      "▁Android": 6262,
      "olds": 6263,
      "rolled": 6264,
      "▁Event": 6265,
      "CP": 6266,
      "uzz": 6267,
      "▁Party": 6268,
      "oe": 6269,
      "life": 6270,
      "▁examples": 6271,
      "▁expensive": 6272,
      "search": 6273,
      "perties": 6274,
      "ailed": 6275,
      "▁Did": 6276,
      "umin": 6277,
      "▁IP": 6278,
      "▁convert": 6279,
      "▁Job": 6280,
      "aud": 6281,
      "▁User": 6282,
      "▁explore": 6283,
      "▁properly": 6284,
      "▁throws": 6285,
      "▁techniques": 6286,
      "▁operating": 6287,
      "▁ce": 6288,
      "▁Thomas": 6289,
      "oker": 6290,
      "Server": 6291,
      "▁glad": 6292,
      "▁male": 6293,
      "then": 6294,
      "Component": 6295,
      "▁Committee": 6296,
      "▁Cas": 6297,
      "▁married": 6298,
      "▁League": 6299,
      "▁boolean": 6300,
      "▁legisl": 6301,
      "▁Congress": 6302,
      "▁proposed": 6303,
      "bi": 6304,
      "▁classic": 6305,
      "▁eventually": 6306,
      "endif": 6307,
      "▁Global": 6308,
      "▁waste": 6309,
      "rum": 6310,
      "▁German": 6311,
      "idential": 6312,
      "ttp": 6313,
      "▁species": 6314,
      "▁ship": 6315,
      "▁objects": 6316,
      "▁favour": 6317,
      "▁Chris": 6318,
      "▁Rev": 6319,
      "▁Pan": 6320,
      "▁Sup": 6321,
      "figure": 6322,
      "▁raise": 6323,
      "▁documents": 6324,
      "▁reb": 6325,
      "▁steel": 6326,
      "ao": 6327,
      "▁laugh": 6328,
      "▁Lim": 6329,
      "▁Prot": 6330,
      "▁focused": 6331,
      "AND": 6332,
      "▁William": 6333,
      "Load": 6334,
      "request": 6335,
      "ura": 6336,
      "▁\"\"": 6337,
      "▁Mike": 6338,
      "▁compre": 6339,
      "rical": 6340,
      "adata": 6341,
      "mem": 6342,
      "▁feels": 6343,
      "▁tele": 6344,
      "▁Manager": 6345,
      "▁Cost": 6346,
      "▁ON": 6347,
      "filename": 6348,
      "▁tom": 6349,
      "oration": 6350,
      "▁Size": 6351,
      "▁arrang": 6352,
      "▁processing": 6353,
      "aren": 6354,
      "▁minor": 6355,
      "▁Mach": 6356,
      "push": 6357,
      "▁```\r": 6358,
      "dered": 6359,
      "FO": 6360,
      "▁advent": 6361,
      "home": 6362,
      "upport": 6363,
      "▁boot": 6364,
      "BU": 6365,
      "▁supposed": 6366,
      "▁je": 6367,
      "▁veget": 6368,
      "▁simpl": 6369,
      "wind": 6370,
      "▁decisions": 6371,
      "▁Vict": 6372,
      "LC": 6373,
      "▁selling": 6374,
      "▁windows": 6375,
      "▁songs": 6376,
      "▁circum": 6377,
      "▁boost": 6378,
      "▁practices": 6379,
      "ASS": 6380,
      "That": 6381,
      "▁SO": 6382,
      "PM": 6383,
      "obe": 6384,
      "▁advanced": 6385,
      "▁guests": 6386,
      "outer": 6387,
      "▁residents": 6388,
      "Listener": 6389,
      "▁pun": 6390,
      "▁interpre": 6391,
      "▁sport": 6392,
      "▁volunte": 6393,
      "Hel": 6394,
      "▁Details": 6395,
      "orney": 6396,
      "▁rom": 6397,
      "▁Francis": 6398,
      "aven": 6399,
      "hab": 6400,
      "ERR": 6401,
      "▁repair": 6402,
      "▁rise": 6403,
      "foot": 6404,
      "istan": 6405,
      "uries": 6406,
      "▁signed": 6407,
      "▁Tur": 6408,
      "▁dedicated": 6409,
      "ployment": 6410,
      "▁survey": 6411,
      "azz": 6412,
      "▁hyd": 6413,
      "car": 6414,
      "▁busy": 6415,
      "ading": 6416,
      "▁ride": 6417,
      "▁stone": 6418,
      "yan": 6419,
      "Phone": 6420,
      "▁stores": 6421,
      "han": 6422,
      "prise": 6423,
      "▁leadership": 6424,
      "Off": 6425,
      "▁Los": 6426,
      "nergy": 6427,
      "▁Die": 6428,
      "acle": 6429,
      "▁Ill": 6430,
      "▁conversation": 6431,
      "▁injury": 6432,
      "▁▁▁▁▁▁▁": 6433,
      "google": 6434,
      "II": 6435,
      "times": 6436,
      "▁Society": 6437,
      "levision": 6438,
      "▁Win": 6439,
      "▁Town": 6440,
      "▁Copyright": 6441,
      "▁exchange": 6442,
      "Check": 6443,
      "AA": 6444,
      "▁quiet": 6445,
      "▁Richard": 6446,
      "ega": 6447,
      "▁debt": 6448,
      "▁Invest": 6449,
      "ln": 6450,
      "▁fantastic": 6451,
      "▁Current": 6452,
      "▁killed": 6453,
      "aa": 6454,
      "▁CH": 6455,
      "▁Pass": 6456,
      "▁Master": 6457,
      "Sty": 6458,
      "vec": 6459,
      "CK": 6460,
      "ban": 6461,
      "eration": 6462,
      "ART": 6463,
      "▁sympt": 6464,
      "▁influence": 6465,
      "▁instr": 6466,
      "▁thick": 6467,
      "▁teachers": 6468,
      "ye": 6469,
      "▁Est": 6470,
      "irrep": 6471,
      "after": 6472,
      "▁installed": 6473,
      "byte": 6474,
      "▁rub": 6475,
      "▁Union": 6476,
      "▁Reviews": 6477,
      "▁SE": 6478,
      "▁appeal": 6479,
      "▁holding": 6480,
      "▁instant": 6481,
      "▁sitting": 6482,
      "outs": 6483,
      "format": 6484,
      "▁Way": 6485,
      "▁funding": 6486,
      "▁editor": 6487,
      "real": 6488,
      "▁Nav": 6489,
      "▁labor": 6490,
      "▁alt": 6491,
      "och": 6492,
      "▁weak": 6493,
      "▁battle": 6494,
      "▁П": 6495,
      "▁accompl": 6496,
      "ulous": 6497,
      "▁Very": 6498,
      "plete": 6499,
      "▁Cook": 6500,
      "▁laun": 6501,
      "ви": 6502,
      "▁Stat": 6503,
      "istant": 6504,
      "sembly": 6505,
      "▁trading": 6506,
      "▁Bob": 6507,
      "▁movies": 6508,
      "▁Squ": 6509,
      "you": 6510,
      "arts": 6511,
      "▁Model": 6512,
      "▁experts": 6513,
      "▁Valley": 6514,
      "▁license": 6515,
      "▁Point": 6516,
      "igan": 6517,
      "}{\\": 6518,
      "rypt": 6519,
      "▁failure": 6520,
      "▁anc": 6521,
      "AGE": 6522,
      "▁agency": 6523,
      "▁motiv": 6524,
      "▁markets": 6525,
      "otype": 6526,
      "rat": 6527,
      "▁tight": 6528,
      "▁Louis": 6529,
      "▁shel": 6530,
      "▁ta": 6531,
      "odies": 6532,
      "▁brings": 6533,
      "range": 6534,
      "▁vot": 6535,
      "bug": 6536,
      "▁proceed": 6537,
      "gamma": 6538,
      "▁extends": 6539,
      "ause": 6540,
      "▁policies": 6541,
      "▁winning": 6542,
      "eger": 6543,
      "orthern": 6544,
      "target": 6545,
      "▁-->": 6546,
      "▁Learn": 6547,
      "▁Wil": 6548,
      "▁Atl": 6549,
      "▁ran": 6550,
      "%;": 6551,
      "▁concerns": 6552,
      "▁joint": 6553,
      "▁Further": 6554,
      "▁domain": 6555,
      "▁trees": 6556,
      "iat": 6557,
      "▁Need": 6558,
      "upy": 6559,
      "▁typically": 6560,
      "zer": 6561,
      "▁LO": 6562,
      "Cur": 6563,
      "▁Jose": 6564,
      "▁fee": 6565,
      "▁await": 6566,
      "UP": 6567,
      "dat": 6568,
      "▁introduced": 6569,
      "▁enhance": 6570,
      "rency": 6571,
      "▁messages": 6572,
      "FT": 6573,
      "olved": 6574,
      "irty": 6575,
      "▁remind": 6576,
      "▁Share": 6577,
      "card": 6578,
      "▁hearing": 6579,
      "▁butter": 6580,
      "css": 6581,
      "▁alleg": 6582,
      "emporary": 6583,
      "'.": 6584,
      "▁enable": 6585,
      "agra": 6586,
      "▁ment": 6587,
      "delta": 6588,
      "vector": 6589,
      "ABLE": 6590,
      "alian": 6591,
      "▁Location": 6592,
      "▁plays": 6593,
      "▁Cy": 6594,
      "▁Sar": 6595,
      "first": 6596,
      "▁Control": 6597,
      "vas": 6598,
      "▁square": 6599,
      "▁fell": 6600,
      "igr": 6601,
      "claim": 6602,
      "▁Fund": 6603,
      "alysis": 6604,
      "▁salt": 6605,
      "CM": 6606,
      "▁Nor": 6607,
      "▁conflic": 6608,
      "▁Wal": 6609,
      "▁Virgin": 6610,
      "pet": 6611,
      "▁phase": 6612,
      "▁sad": 6613,
      "Command": 6614,
      "okes": 6615,
      "icians": 6616,
      "▁chain": 6617,
      "▁joined": 6618,
      "▁nic": 6619,
      "cos": 6620,
      "cho": 6621,
      "Prov": 6622,
      "▁updates": 6623,
      "▁recommended": 6624,
      "acter": 6625,
      "▁plastic": 6626,
      "▁amb": 6627,
      "igen": 6628,
      "▁exciting": 6629,
      "▁apparent": 6630,
      "related": 6631,
      "kit": 6632,
      "▁stated": 6633,
      "▁tow": 6634,
      "▁Series": 6635,
      "rows": 6636,
      "BO": 6637,
      "▁sexual": 6638,
      "▁accident": 6639,
      "▁Right": 6640,
      "▁measures": 6641,
      "Entity": 6642,
      "▁importance": 6643,
      "▁pod": 6644,
      "▁Pop": 6645,
      "▁Western": 6646,
      "icate": 6647,
      "▁layer": 6648,
      "▁seat": 6649,
      "adian": 6650,
      "angle": 6651,
      "▁broken": 6652,
      "▁conserv": 6653,
      "▁accommod": 6654,
      "▁appeared": 6655,
      "esh": 6656,
      "ctx": 6657,
      "▁Comments": 6658,
      "▁Therefore": 6659,
      "▁determined": 6660,
      "Collection": 6661,
      "▁familiar": 6662,
      "▁cloud": 6663,
      "mond": 6664,
      "ternoon": 6665,
      "….": 6666,
      "bal": 6667,
      "theta": 6668,
      "Version": 6669,
      "only": 6670,
      "▁feedback": 6671,
      "▁Version": 6672,
      "▁Dom": 6673,
      "▁implementation": 6674,
      "▁lived": 6675,
      "▁Whether": 6676,
      "!”": 6677,
      "▁Pri": 6678,
      "▁realize": 6679,
      "▁Earth": 6680,
      "▁MA": 6681,
      "eper": 6682,
      "pes": 6683,
      "▁officials": 6684,
      "DS": 6685,
      "redit": 6686,
      "args": 6687,
      "▁allowing": 6688,
      "eller": 6689,
      "Attribute": 6690,
      "▁bes": 6691,
      "▁Germany": 6692,
      "▁generate": 6693,
      "▁Blog": 6694,
      "▁errors": 6695,
      "oor": 6696,
      "▁caught": 6697,
      "▁suit": 6698,
      "▁Non": 6699,
      "▁В": 6700,
      "▁Help": 6701,
      "▁Human": 6702,
      "words": 6703,
      "ди": 6704,
      "▁stopped": 6705,
      "iki": 6706,
      "▁assistance": 6707,
      "INE": 6708,
      "▁AT": 6709,
      "double": 6710,
      "▁district": 6711,
      "ITY": 6712,
      "service": 6713,
      "▁adult": 6714,
      "▁Gal": 6715,
      "▁elim": 6716,
      "▁Try": 6717,
      "Ret": 6718,
      "▁impress": 6719,
      "▁websites": 6720,
      "iest": 6721,
      "▁describe": 6722,
      "aks": 6723,
      "▁gun": 6724,
      "▁Hard": 6725,
      "rot": 6726,
      "Length": 6727,
      "ograp": 6728,
      "▁transition": 6729,
      "▁detailed": 6730,
      "▁artists": 6731,
      "▁Girl": 6732,
      "missions": 6733,
      "kins": 6734,
      "ications": 6735,
      "▁seek": 6736,
      "▁definition": 6737,
      "ctors": 6738,
      "▁trig": 6739,
      "▁agent": 6740,
      "▁browser": 6741,
      "▁Room": 6742,
      "▁marriage": 6743,
      "covery": 6744,
      "▁consequ": 6745,
      "▁Local": 6746,
      "▁belong": 6747,
      "erry": 6748,
      "▁vent": 6749,
      "▁pregn": 6750,
      "▁professionals": 6751,
      "fin": 6752,
      "uable": 6753,
      "ione": 6754,
      "▁Instead": 6755,
      "▁pure": 6756,
      "▁Econom": 6757,
      "▁soul": 6758,
      "CS": 6759,
      "▁Expl": 6760,
      "▁provider": 6761,
      "xx": 6762,
      "▁Java": 6763,
      "▁variable": 6764,
      "dated": 6765,
      "▁colour": 6766,
      "▁Museum": 6767,
      "Output": 6768,
      "▁wid": 6769,
      "road": 6770,
      "▁crusher": 6771,
      "▁stret": 6772,
      "▁African": 6773,
      "▁fif": 6774,
      "▁Policy": 6775,
      "▁fuel": 6776,
      "▁arrest": 6777,
      "scri": 6778,
      "▁parameter": 6779,
      "▁route": 6780,
      "ensor": 6781,
      "▁Thus": 6782,
      "non": 6783,
      "▁wa": 6784,
      "bles": 6785,
      "▁generated": 6786,
      "▁youth": 6787,
      "▁automatically": 6788,
      "ampionship": 6789,
      "▁locations": 6790,
      "▁Cast": 6791,
      "There": 6792,
      "oh": 6793,
      "▁ourselves": 6794,
      "▁au": 6795,
      "ounter": 6796,
      "!)": 6797,
      "Back": 6798,
      "▁manner": 6799,
      "det": 6800,
      "Per": 6801,
      "▁climate": 6802,
      "▁crim": 6803,
      "fty": 6804,
      "▁IM": 6805,
      "igration": 6806,
      "▁seeking": 6807,
      "cean": 6808,
      "ras": 6809,
      "tex": 6810,
      "▁sudden": 6811,
      "▁zero": 6812,
      "▁Hen": 6813,
      "▁Cup": 6814,
      "▁Children": 6815,
      "▁noted": 6816,
      "show": 6817,
      "ushing": 6818,
      "CR": 6819,
      "▁reduced": 6820,
      "▁Aff": 6821,
      "▁Photo": 6822,
      "▁cleaning": 6823,
      "▁parking": 6824,
      "▁environmental": 6825,
      "NS": 6826,
      "nu": 6827,
      "ician": 6828,
      "▁external": 6829,
      "center": 6830,
      "she": 6831,
      "▁obtained": 6832,
      "oking": 6833,
      "▁defense": 6834,
      "▁worse": 6835,
      "onym": 6836,
      "▁Which": 6837,
      "▁iron": 6838,
      "▁PRO": 6839,
      "▁Image": 6840,
      "▁von": 6841,
      "inations": 6842,
      "▁brown": 6843,
      "Const": 6844,
      "tau": 6845,
      "▁maintenance": 6846,
      "▁proof": 6847,
      "▁animal": 6848,
      "▁Ep": 6849,
      "▁Mil": 6850,
      "▁answers": 6851,
      "Click": 6852,
      "▁flag": 6853,
      "▁relative": 6854,
      "\\\"": 6855,
      "▁Secret": 6856,
      "ipl": 6857,
      "▁hyp": 6858,
      "phas": 6859,
      "▁administration": 6860,
      "dec": 6861,
      "▁paint": 6862,
      "▁Live": 6863,
      "▁bond": 6864,
      "▁Bed": 6865,
      "▁specifically": 6866,
      "▁Police": 6867,
      "TE": 6868,
      "▁combined": 6869,
      "▁Minister": 6870,
      "▁Brand": 6871,
      "ión": 6872,
      "▁Gar": 6873,
      "▁Prom": 6874,
      "▁neck": 6875,
      "▁rapid": 6876,
      "▁visitors": 6877,
      "empty": 6878,
      "▁depending": 6879,
      "]{": 6880,
      "▁replace": 6881,
      "sq": 6882,
      "_.": 6883,
      "▁Orig": 6884,
      "bsite": 6885,
      "▁choices": 6886,
      "▁ingredients": 6887,
      "▁faster": 6888,
      "▁readers": 6889,
      "^\\": 6890,
      "erg": 6891,
      "▁Jeff": 6892,
      "obj": 6893,
      "bottom": 6894,
      "elled": 6895,
      "▁teach": 6896,
      "▁milk": 6897,
      "▁sister": 6898,
      "Column": 6899,
      "▁Finally": 6900,
      "▁cities": 6901,
      "▁Gra": 6902,
      "▁appreciate": 6903,
      "ivered": 6904,
      "▁tough": 6905,
      "Post": 6906,
      "tab": 6907,
      "Mat": 6908,
      "▁gam": 6909,
      "▁Mic": 6910,
      "///": 6911,
      "▁fuck": 6912,
      "▁MO": 6913,
      "▁prin": 6914,
      "▁teen": 6915,
      "▁accounts": 6916,
      "iform": 6917,
      "▁furniture": 6918,
      "▁intellig": 6919,
      "ji": 6920,
      "▁liqu": 6921,
      "Comp": 6922,
      "▁desire": 6923,
      "produ": 6924,
      "Write": 6925,
      "▁define": 6926,
      "oria": 6927,
      "▁weap": 6928,
      "▁confidence": 6929,
      "author": 6930,
      "elly": 6931,
      "xe": 6932,
      "▁causes": 6933,
      "▁Know": 6934,
      "enu": 6935,
      "▁Mur": 6936,
      "▁courses": 6937,
      "raphics": 6938,
      "▁serving": 6939,
      "▁Lab": 6940,
      "▁lands": 6941,
      "▁roof": 6942,
      "osite": 6943,
      "▁lunch": 6944,
      "inem": 6945,
      "isters": 6946,
      "▁forces": 6947,
      "▁tells": 6948,
      "▁anywhere": 6949,
      "▁Meet": 6950,
      "▁drugs": 6951,
      "▁discovered": 6952,
      "ми": 6953,
      "▁Cross": 6954,
      "▁MS": 6955,
      "▁Fun": 6956,
      "▁considering": 6957,
      "arrant": 6958,
      "▁ris": 6959,
      "LS": 6960,
      "process": 6961,
      "▁fabric": 6962,
      "▁Select": 6963,
      "▁trouble": 6964,
      "OK": 6965,
      "ixed": 6966,
      "▁Boy": 6967,
      "▁standing": 6968,
      "▁phil": 6969,
      "▁pray": 6970,
      "UD": 6971,
      "Controller": 6972,
      "▁corporate": 6973,
      "osit": 6974,
      "▁cute": 6975,
      "inating": 6976,
      "▁university": 6977,
      "▁Kore": 6978,
      "▁strategies": 6979,
      "▁responsibility": 6980,
      "PRO": 6981,
      "▁Order": 6982,
      "ainer": 6983,
      "▁bigger": 6984,
      "▁chemical": 6985,
      "▁Through": 6986,
      "▁Americans": 6987,
      "▁mit": 6988,
      "Det": 6989,
      "cor": 6990,
      "▁procedure": 6991,
      "iveness": 6992,
      "▁fruit": 6993,
      "▁Related": 6994,
      "hetic": 6995,
      "▁Walk": 6996,
      "▁approximately": 6997,
      "▁imagine": 6998,
      "▁Tour": 6999,
      "ancer": 7000,
      "▁dance": 7001,
      "▁Paris": 7002,
      "▁Martin": 7003,
      "▁signs": 7004,
      "▁aspects": 7005,
      "▁lean": 7006,
      "▁Charl": 7007,
      "▁indeed": 7008,
      "▁Ma": 7009,
      "eld": 7010,
      "▁los": 7011,
      "▁Joe": 7012,
      "merce": 7013,
      "▁Lee": 7014,
      "▁Award": 7015,
      "▁prepare": 7016,
      "▁sides": 7017,
      "▁remaining": 7018,
      "Update": 7019,
      "reens": 7020,
      "/>": 7021,
      "▁audio": 7022,
      "▁reco": 7023,
      "▁Comput": 7024,
      "proof": 7025,
      "▁Plus": 7026,
      "▁Box": 7027,
      "▁upper": 7028,
      "---": 7029,
      "Link": 7030,
      "▁dogs": 7031,
      "bur": 7032,
      "▁afternoon": 7033,
      "▁crowd": 7034,
      "Options": 7035,
      "▁Ap": 7036,
      "Script": 7037,
      "▁apps": 7038,
      "▁protein": 7039,
      "Resource": 7040,
      "▁yesterday": 7041,
      "irmed": 7042,
      "▁shoes": 7043,
      "header": 7044,
      "▁Centre": 7045,
      "▁lux": 7046,
      "afe": 7047,
      "▁tro": 7048,
      "▁©": 7049,
      "▁concerned": 7050,
      "▁hero": 7051,
      "yer": 7052,
      "ificate": 7053,
      "▁twice": 7054,
      "▁а": 7055,
      "irds": 7056,
      "▁Hom": 7057,
      ".[": 7058,
      "Mode": 7059,
      "▁sin": 7060,
      "vi": 7061,
      "legal": 7062,
      "abet": 7063,
      "▁FOR": 7064,
      "▁motion": 7065,
      "▁Method": 7066,
      "▁Japanese": 7067,
      "▁joy": 7068,
      "▁Library": 7069,
      "ells": 7070,
      "▁Print": 7071,
      "▁Prem": 7072,
      "ма": 7073,
      "▁Should": 7074,
      "▁Cath": 7075,
      "▁signal": 7076,
      "▁fourth": 7077,
      "▁committed": 7078,
      "gorithm": 7079,
      "▁consumer": 7080,
      "river": 7081,
      "▁Sat": 7082,
      "▁icon": 7083,
      "▁Johnson": 7084,
      "▁telling": 7085,
      "GL": 7086,
      "▁Young": 7087,
      "▁Beaut": 7088,
      "▁designs": 7089,
      "▁highlight": 7090,
      "▁holds": 7091,
      "Web": 7092,
      "▁fees": 7093,
      "▁CEO": 7094,
      "▁cultural": 7095,
      "omy": 7096,
      "▁Guide": 7097,
      "partial": 7098,
      "▁ко": 7099,
      "*}": 7100,
      "▁Account": 7101,
      "▁hook": 7102,
      "▁Hy": 7103,
      "▁significantly": 7104,
      "leq": 7105,
      "▁arrived": 7106,
      "▁Ha": 7107,
      "▁Du": 7108,
      "▁turns": 7109,
      "▁AS": 7110,
      "▁Friend": 7111,
      "▁insert": 7112,
      "▁ven": 7113,
      "▁perspective": 7114,
      "oute": 7115,
      "sible": 7116,
      "▁Line": 7117,
      "▁facility": 7118,
      "ighter": 7119,
      "▁wal": 7120,
      "▁confirm": 7121,
      "▁nuc": 7122,
      "▁kinds": 7123,
      "▁promote": 7124,
      "▁gro": 7125,
      "▁knowing": 7126,
      "~~": 7127,
      "▁tea": 7128,
      "▁centre": 7129,
      "▁usual": 7130,
      "west": 7131,
      "▁paying": 7132,
      "▁boys": 7133,
      "▁fort": 7134,
      "oston": 7135,
      "▁dra": 7136,
      "One": 7137,
      "rho": 7138,
      "▁shipping": 7139,
      "hem": 7140,
      "common": 7141,
      "Json": 7142,
      "▁configuration": 7143,
      "▁syn": 7144,
      "VD": 7145,
      "▁liked": 7146,
      "▁flight": 7147,
      "▁carried": 7148,
      "▁episode": 7149,
      "Block": 7150,
      "FC": 7151,
      "▁forced": 7152,
      "▁wearing": 7153,
      "▁exists": 7154,
      "▁fly": 7155,
      "▁depth": 7156,
      "away": 7157,
      "▁intended": 7158,
      "▁mac": 7159,
      "▁Administ": 7160,
      "poses": 7161,
      "$-": 7162,
      "▁identified": 7163,
      "▁adults": 7164,
      "▁Jon": 7165,
      "bra": 7166,
      "ibilities": 7167,
      "▁herself": 7168,
      "undle": 7169,
      "ansion": 7170,
      "hensive": 7171,
      "REE": 7172,
      "]);": 7173,
      "▁ends": 7174,
      "▁Kn": 7175,
      "▁Conference": 7176,
      "erest": 7177,
      "▁Arts": 7178,
      "▁Three": 7179,
      "▁delicious": 7180,
      "▁breakfast": 7181,
      "poration": 7182,
      "▁symptoms": 7183,
      "▁identity": 7184,
      "▁diss": 7185,
      "▁summ": 7186,
      "atre": 7187,
      "▁Haw": 7188,
      "▁Sports": 7189,
      "oolean": 7190,
      "▁creation": 7191,
      "▁poly": 7192,
      "▁Section": 7193,
      "▁liber": 7194,
      "▁chosen": 7195,
      "that": 7196,
      "▁univers": 7197,
      "stars": 7198,
      "▁explained": 7199,
      "▁gather": 7200,
      "▁Energy": 7201,
      "▁fellow": 7202,
      "Part": 7203,
      "lines": 7204,
      "▁tut": 7205,
      "▁Bal": 7206,
      "▁Low": 7207,
      "▁reader": 7208,
      "riting": 7209,
      "Dev": 7210,
      "edge": 7211,
      "▁Comment": 7212,
      "▁extension": 7213,
      "▁CL": 7214,
      "ACK": 7215,
      "▁spons": 7216,
      "▁appearance": 7217,
      "ownt": 7218,
      "▁announce": 7219,
      "oup": 7220,
      "▁Bow": 7221,
      "▁>=": 7222,
      "▁speech": 7223,
      "▁tasks": 7224,
      "icial": 7225,
      "rence": 7226,
      "▁swim": 7227,
      "▁therapy": 7228,
      "Format": 7229,
      "BD": 7230,
      "▁Es": 7231,
      "static": 7232,
      "▁improved": 7233,
      "▁fle": 7234,
      "▁academic": 7235,
      "Max": 7236,
      "▁Term": 7237,
      "IES": 7238,
      "arks": 7239,
      "site": 7240,
      "▁od": 7241,
      "clude": 7242,
      "▁extract": 7243,
      "star": 7244,
      "Filter": 7245,
      "rr": 7246,
      "▁sum": 7247,
      "onic": 7248,
      "▁Happy": 7249,
      "▁registered": 7250,
      "▁Ess": 7251,
      "▁Place": 7252,
      "▁missed": 7253,
      "expected": 7254,
      "▁occasion": 7255,
      "▁orders": 7256,
      "▁Van": 7257,
      "▁dollars": 7258,
      "▁cabin": 7259,
      "▁Field": 7260,
      "cknow": 7261,
      "▁religious": 7262,
      "▁EN": 7263,
      "▁charges": 7264,
      "▁ath": 7265,
      "▁tast": 7266,
      "▁Hor": 7267,
      "ican": 7268,
      "▁installation": 7269,
      "tra": 7270,
      "▁employee": 7271,
      "greg": 7272,
      "▁hell": 7273,
      "▁Little": 7274,
      "▁pump": 7275,
      "▁hidden": 7276,
      "▁chicken": 7277,
      "stances": 7278,
      "▁rac": 7279,
      "▁hun": 7280,
      "▁occup": 7281,
      "▁alcohol": 7282,
      "▁reject": 7283,
      "▁scr": 7284,
      "▁remote": 7285,
      "▁freedom": 7286,
      "ati": 7287,
      "cp": 7288,
      "▁funny": 7289,
      "▁Digital": 7290,
      "annels": 7291,
      "▁bedroom": 7292,
      "▁Cond": 7293,
      "▁outdoor": 7294,
      "oga": 7295,
      "power": 7296,
      "▁perfectly": 7297,
      "tx": 7298,
      "cf": 7299,
      "▁bringing": 7300,
      "▁за": 7301,
      "▁Fair": 7302,
      "▁inn": 7303,
      "▁Wild": 7304,
      "../../": 7305,
      "▁meat": 7306,
      "Bar": 7307,
      "ributions": 7308,
      "▁prove": 7309,
      "▁Phone": 7310,
      "▁noticed": 7311,
      "▁URL": 7312,
      "▁Update": 7313,
      "eries": 7314,
      "▁treated": 7315,
      "▁aid": 7316,
      "▁speaking": 7317,
      "acket": 7318,
      "Control": 7319,
      ",'": 7320,
      "Label": 7321,
      "▁films": 7322,
      "▁observed": 7323,
      "че": 7324,
      "▁Article": 7325,
      "▁cere": 7326,
      "▁citizens": 7327,
      "reme": 7328,
      "▁tail": 7329,
      "▁mere": 7330,
      "response": 7331,
      "▁Penn": 7332,
      "▁Ell": 7333,
      "osoph": 7334,
      "vy": 7335,
      "▁grade": 7336,
      "▁delay": 7337,
      "▁native": 7338,
      "▁yield": 7339,
      "▁bless": 7340,
      "▁cheese": 7341,
      "▁Never": 7342,
      "▁\"/": 7343,
      "▁Mid": 7344,
      "▁behavi": 7345,
      "▁neighborhood": 7346,
      "▁meal": 7347,
      "▁interests": 7348,
      "▁Process": 7349,
      "}$,": 7350,
      "▁nine": 7351,
      "▁contrast": 7352,
      "TC": 7353,
      "▁closer": 7354,
      "▁spin": 7355,
      "berry": 7356,
      "▁tab": 7357,
      "▁ast": 7358,
      "▁unc": 7359,
      "update": 7360,
      "▁Again": 7361,
      "▁participants": 7362,
      "▁(*": 7363,
      "▁assume": 7364,
      "▁shock": 7365,
      "front": 7366,
      "▁king": 7367,
      "▁consumers": 7368,
      "rapper": 7369,
      "▁Contin": 7370,
      "▁approved": 7371,
      "▁depart": 7372,
      "▁fro": 7373,
      "iams": 7374,
      "▁deals": 7375,
      "▁happening": 7376,
      "ста": 7377,
      "▁defend": 7378,
      "Rem": 7379,
      "ixture": 7380,
      "▁..": 7381,
      "So": 7382,
      "root": 7383,
      "URL": 7384,
      "uated": 7385,
      "lets": 7386,
      "▁Cert": 7387,
      "▁vehicles": 7388,
      "▁encourage": 7389,
      "▁cro": 7390,
      "project": 7391,
      "▁delivered": 7392,
      "▁Span": 7393,
      "▁greatest": 7394,
      "MO": 7395,
      "▁breast": 7396,
      "▁sac": 7397,
      "▁suitable": 7398,
      "▁Features": 7399,
      "▁Night": 7400,
      "▁chief": 7401,
      "▁pharm": 7402,
      "ws": 7403,
      "close": 7404,
      "▁affected": 7405,
      "kt": 7406,
      "▁draft": 7407,
      "master": 7408,
      "▁WH": 7409,
      "▁photograph": 7410,
      "▁emergency": 7411,
      "▁picked": 7412,
      "ão": 7413,
      "▁cos": 7414,
      "▁violence": 7415,
      "▁practical": 7416,
      "▁obl": 7417,
      "▁inspired": 7418,
      "▁McC": 7419,
      "▁revenue": 7420,
      "▁surgery": 7421,
      "▁Sale": 7422,
      "▁god": 7423,
      "▁prospect": 7424,
      "▁relatively": 7425,
      "ih": 7426,
      "▁divid": 7427,
      "▁specified": 7428,
      "▁vary": 7429,
      "▁Steve": 7430,
      "▁Phys": 7431,
      "▁guest": 7432,
      "▁MP": 7433,
      "▁bread": 7434,
      "▁Still": 7435,
      "▁km": 7436,
      "▁Turn": 7437,
      "▁Travel": 7438,
      ")]": 7439,
      "Url": 7440,
      "▁instructions": 7441,
      "othe": 7442,
      "▁Sn": 7443,
      "orough": 7444,
      "mosp": 7445,
      "itionally": 7446,
      "▁lights": 7447,
      "method": 7448,
      "▁instit": 7449,
      "tag": 7450,
      "▁Georg": 7451,
      "▁offset": 7452,
      "dep": 7453,
      "▁tor": 7454,
      "orable": 7455,
      "▁suggested": 7456,
      "▁topics": 7457,
      "icensed": 7458,
      "ру": 7459,
      "▁prison": 7460,
      "▁HD": 7461,
      "Equals": 7462,
      "▁entre": 7463,
      "▁rough": 7464,
      "▁Jones": 7465,
      "▁arms": 7466,
      "▁accepted": 7467,
      "▁hate": 7468,
      "▁entirely": 7469,
      "▁clinical": 7470,
      "▁AP": 7471,
      "water": 7472,
      "SL": 7473,
      "▁island": 7474,
      "▁illustr": 7475,
      "▁Matt": 7476,
      "▁<!--": 7477,
      "person": 7478,
      "▁extended": 7479,
      "ulty": 7480,
      "▁bathroom": 7481,
      "▁mal": 7482,
      "ogen": 7483,
      "omic": 7484,
      "▁password": 7485,
      "▁advertising": 7486,
      "ско": 7487,
      "urban": 7488,
      "▁housing": 7489,
      "▁iPhone": 7490,
      "Spec": 7491,
      "efully": 7492,
      "ader": 7493,
      "strong": 7494,
      "▁san": 7495,
      "▁recovery": 7496,
      "scribe": 7497,
      "▁resolution": 7498,
      "Equal": 7499,
      "▁folks": 7500,
      "▁Small": 7501,
      "▁battery": 7502,
      "estyle": 7503,
      "▁Looking": 7504,
      "▁supporting": 7505,
      "▁Sometimes": 7506,
      "▁Recent": 7507,
      "▁Angeles": 7508,
      "▁industrial": 7509,
      "▁cycle": 7510,
      "kes": 7511,
      "▁loans": 7512,
      "How": 7513,
      "▁witness": 7514,
      "▁Tem": 7515,
      "▁Pot": 7516,
      "▁Execut": 7517,
      "▁positions": 7518,
      "cluded": 7519,
      "cuss": 7520,
      "▁Russian": 7521,
      "dr": 7522,
      "▁Collection": 7523,
      "▁purposes": 7524,
      "Style": 7525,
      "▁NO": 7526,
      "nam": 7527,
      "▁Base": 7528,
      "ORD": 7529,
      "}$.": 7530,
      "▁Four": 7531,
      "iments": 7532,
      "▁effectively": 7533,
      "bro": 7534,
      "▁Chief": 7535,
      "images": 7536,
      "oti": 7537,
      "▁launched": 7538,
      "inos": 7539,
      "▁Australian": 7540,
      "▁len": 7541,
      "▁shap": 7542,
      "unning": 7543,
      "▁substant": 7544,
      "▁container": 7545,
      "▁delete": 7546,
      "▁directory": 7547,
      "▁Environment": 7548,
      "ве": 7549,
      "Types": 7550,
      "▁anx": 7551,
      "AIL": 7552,
      "▁massive": 7553,
      "click": 7554,
      "▁partnership": 7555,
      "Address": 7556,
      "store": 7557,
      "▁shares": 7558,
      "▁TR": 7559,
      "iser": 7560,
      "Min": 7561,
      "iece": 7562,
      "ailability": 7563,
      "▁manual": 7564,
      "▁bike": 7565,
      "scale": 7566,
      "TYPE": 7567,
      "▁YO": 7568,
      "▁sorry": 7569,
      "▁birthday": 7570,
      "imer": 7571,
      "▁sick": 7572,
      "xf": 7573,
      "conf": 7574,
      "▁chocolate": 7575,
      "▁vector": 7576,
      "sor": 7577,
      "▁Daniel": 7578,
      "▁publish": 7579,
      "anna": 7580,
      "env": 7581,
      "▁begins": 7582,
      "▁truck": 7583,
      "STR": 7584,
      "Oper": 7585,
      "▁###": 7586,
      "uid": 7587,
      "Init": 7588,
      "iously": 7589,
      "orem": 7590,
      "▁compare": 7591,
      "▁tickets": 7592,
      "Valid": 7593,
      "icity": 7594,
      "▁spl": 7595,
      "ingu": 7596,
      "xi": 7597,
      "▁Hon": 7598,
      "isc": 7599,
      "options": 7600,
      "▁jav": 7601,
      "▁keeps": 7602,
      "▁una": 7603,
      "spring": 7604,
      "▁🙂": 7605,
      "Header": 7606,
      "annot": 7607,
      "▁television": 7608,
      "▁hur": 7609,
      "▁Boston": 7610,
      "cr": 7611,
      "lymp": 7612,
      "een": 7613,
      "▁plot": 7614,
      "▁discussed": 7615,
      "▁anyway": 7616,
      "QU": 7617,
      "awn": 7618,
      "ucks": 7619,
      "▁clothes": 7620,
      "ingly": 7621,
      "▁equival": 7622,
      "▁successfully": 7623,
      "nces": 7624,
      "▁Area": 7625,
      "abb": 7626,
      "infty": 7627,
      "▁plate": 7628,
      "▁officer": 7629,
      "▁fo": 7630,
      "ictionary": 7631,
      "▁Ken": 7632,
      "orders": 7633,
      "▁frag": 7634,
      "▁surprise": 7635,
      "▁Perform": 7636,
      "▁destroy": 7637,
      "iger": 7638,
      "▁feat": 7639,
      "rible": 7640,
      "oval": 7641,
      "▁emphas": 7642,
      "leep": 7643,
      "gent": 7644,
      "▁enem": 7645,
      "ACT": 7646,
      "▁matters": 7647,
      "orgeous": 7648,
      "▁vit": 7649,
      "oman": 7650,
      "cat": 7651,
      "▁Games": 7652,
      "▁Profession": 7653,
      "▁crisis": 7654,
      "apped": 7655,
      "▁doors": 7656,
      "emic": 7657,
      "▁Sex": 7658,
      "\"))": 7659,
      "▁Connect": 7660,
      "▁Pac": 7661,
      "▁saved": 7662,
      "▁Error": 7663,
      "izz": 7664,
      "acking": 7665,
      "▁blow": 7666,
      "▁Having": 7667,
      "▁versions": 7668,
      "},\\": 7669,
      "lights": 7670,
      "Thread": 7671,
      "True": 7672,
      "▁setup": 7673,
      "▁raw": 7674,
      "dt": 7675,
      "▁boat": 7676,
      "▁Bon": 7677,
      "PT": 7678,
      "▁administr": 7679,
      "▁Clean": 7680,
      "eqref": 7681,
      "▁Italian": 7682,
      "▁distinct": 7683,
      "ashed": 7684,
      "▁moments": 7685,
      "utter": 7686,
      "▁split": 7687,
      "▁layout": 7688,
      "erman": 7689,
      "▁executive": 7690,
      "▁AL": 7691,
      "▁Tax": 7692,
      "▁authent": 7693,
      "▁flowers": 7694,
      "▁Russia": 7695,
      "▁Royal": 7696,
      "▁pit": 7697,
      "▁differences": 7698,
      "▁coast": 7699,
      "▁Virginia": 7700,
      "▁hat": 7701,
      "▁vert": 7702,
      "▁NS": 7703,
      "▁sufficient": 7704,
      "▁Fac": 7705,
      "▁Website": 7706,
      "▁buildings": 7707,
      "▁goods": 7708,
      "Co": 7709,
      "una": 7710,
      "▁Ide": 7711,
      "omega": 7712,
      "▁Il": 7713,
      "URE": 7714,
      "▁critic": 7715,
      "▁Works": 7716,
      "▁Tri": 7717,
      "▁disappoint": 7718,
      "▁DO": 7719,
      "internal": 7720,
      "▁nurs": 7721,
      "▁Sep": 7722,
      "▁align": 7723,
      "number": 7724,
      "▁authors": 7725,
      "▁dish": 7726,
      "xml": 7727,
      "▁$$": 7728,
      "ERS": 7729,
      "icing": 7730,
      "▁Save": 7731,
      "Acc": 7732,
      "▁excess": 7733,
      "▁adm": 7734,
      "blog": 7735,
      "▁pin": 7736,
      "▁SH": 7737,
      "quot": 7738,
      "erts": 7739,
      "km": 7740,
      "▁Short": 7741,
      "▁forest": 7742,
      "▁guard": 7743,
      "▁typical": 7744,
      "▁Ca": 7745,
      "php": 7746,
      "▁tou": 7747,
      "eler": 7748,
      "hus": 7749,
      "▁sequence": 7750,
      "▁smile": 7751,
      "display": 7752,
      "▁Marketing": 7753,
      "▁crazy": 7754,
      "▁Yet": 7755,
      "▁dump": 7756,
      "uma": 7757,
      "▁decades": 7758,
      "}(\\": 7759,
      "▁Array": 7760,
      "Met": 7761,
      "▁ANY": 7762,
      "Vis": 7763,
      "▁worst": 7764,
      "▁Ol": 7765,
      "cha": 7766,
      "▁prompt": 7767,
      "ци": 7768,
      "▁candidates": 7769,
      "▁machines": 7770,
      "▁Join": 7771,
      "▁Trust": 7772,
      "▁consistent": 7773,
      "▁hundreds": 7774,
      "▁Init": 7775,
      "▁Mexico": 7776,
      "▁го": 7777,
      "▁tested": 7778,
      "remove": 7779,
      "GE": 7780,
      "product": 7781,
      "▁candidate": 7782,
      "▁reput": 7783,
      "▁args": 7784,
      "▁severe": 7785,
      "▁revealed": 7786,
      "aws": 7787,
      "▁Mobile": 7788,
      "arian": 7789,
      "rick": 7790,
      "She": 7791,
      "▁absolute": 7792,
      "before": 7793,
      "▁visiting": 7794,
      "oster": 7795,
      "kg": 7796,
      "▁Hospital": 7797,
      "▁Andrew": 7798,
      "▁synt": 7799,
      "▁binary": 7800,
      "▁Coll": 7801,
      "▁papers": 7802,
      "game": 7803,
      "Frame": 7804,
      "▁planned": 7805,
      "▁drivers": 7806,
      "▁Canadian": 7807,
      "Width": 7808,
      "▁patterns": 7809,
      "▁involve": 7810,
      "▁Foot": 7811,
      "▁submit": 7812,
      "vo": 7813,
      "▁crime": 7814,
      "▁facts": 7815,
      "▁supports": 7816,
      "▁technologies": 7817,
      "▁Federal": 7818,
      "▁Sus": 7819,
      "▁respectively": 7820,
      "ARR": 7821,
      "ITE": 7822,
      "▁valuable": 7823,
      "▁wealth": 7824,
      "▁perman": 7825,
      "▁Charles": 7826,
      "▁recorded": 7827,
      "▁hurt": 7828,
      "▁mixed": 7829,
      "parse": 7830,
      "▁ease": 7831,
      ",.": 7832,
      "▁emotional": 7833,
      "▁Kar": 7834,
      "Delta": 7835,
      "nel": 7836,
      "Ab": 7837,
      "alog": 7838,
      "▁Was": 7839,
      "Ptr": 7840,
      "▁ped": 7841,
      "▁Sales": 7842,
      "▁cooking": 7843,
      "▁plug": 7844,
      "▁К": 7845,
      "▁wheel": 7846,
      "ifies": 7847,
      "▁loop": 7848,
      "Don": 7849,
      "▁restaurants": 7850,
      "▁Would": 7851,
      "Provider": 7852,
      "▁providers": 7853,
      "▁diam": 7854,
      "▁Williams": 7855,
      "▁dynamic": 7856,
      "▁frequently": 7857,
      "▁upload": 7858,
      "sv": 7859,
      "▁basket": 7860,
      "▁Jac": 7861,
      "uing": 7862,
      "▁pour": 7863,
      "▁solve": 7864,
      "resents": 7865,
      "▁horse": 7866,
      "ZE": 7867,
      "▁infrast": 7868,
      "iana": 7869,
      "▁(\"": 7870,
      "▁foods": 7871,
      "uls": 7872,
      "▁terror": 7873,
      "▁lad": 7874,
      "▁Pract": 7875,
      "▁commitment": 7876,
      "▁village": 7877,
      "roke": 7878,
      "▁household": 7879,
      "umps": 7880,
      "PD": 7881,
      "umes": 7882,
      "olec": 7883,
      "▁sauce": 7884,
      "mega": 7885,
      "▁lie": 7886,
      "ée": 7887,
      "▁Action": 7888,
      "▁Festival": 7889,
      "▁covers": 7890,
      "▁Despite": 7891,
      "▁tomorrow": 7892,
      "ista": 7893,
      "▁efficiency": 7894,
      "UB": 7895,
      "▁educational": 7896,
      "▁fra": 7897,
      ".’": 7898,
      "ULT": 7899,
      "IND": 7900,
      "▁Produ": 7901,
      "▁Bu": 7902,
      "▁brands": 7903,
      "▁Jackson": 7904,
      "▁override": 7905,
      "asant": 7906,
      "iano": 7907,
      "▁Stock": 7908,
      "▁spaces": 7909,
      "▁Ari": 7910,
      "tml": 7911,
      "▁Middle": 7912,
      "▁slot": 7913,
      "Level": 7914,
      "illy": 7915,
      "||": 7916,
      "prene": 7917,
      "▁Mean": 7918,
      "mult": 7919,
      "ito": 7920,
      "rance": 7921,
      "Task": 7922,
      "▁comparison": 7923,
      "▁turning": 7924,
      "▁river": 7925,
      "▁Ltd": 7926,
      "▁matrix": 7927,
      "ben": 7928,
      "▁conver": 7929,
      "▁compliance": 7930,
      "▁Kim": 7931,
      "▁abuse": 7932,
      "▁taught": 7933,
      "upyter": 7934,
      "▁receiving": 7935,
      "▁OS": 7936,
      "▁walls": 7937,
      "▁depends": 7938,
      "▁likes": 7939,
      "ko": 7940,
      "▁constantly": 7941,
      "▁presentation": 7942,
      "Row": 7943,
      "▁degrees": 7944,
      "▁county": 7945,
      "▁detect": 7946,
      "framework": 7947,
      "▁OK": 7948,
      "▁EU": 7949,
      "▁Asia": 7950,
      "▁yellow": 7951,
      "Connection": 7952,
      "▁reliable": 7953,
      "▁surprised": 7954,
      "▁realized": 7955,
      "(-": 7956,
      "▁grown": 7957,
      "▁purchased": 7958,
      "rich": 7959,
      "▁Students": 7960,
      "▁circumstances": 7961,
      "▁atmosp": 7962,
      "▁inner": 7963,
      "▁increases": 7964,
      "▁Li": 7965,
      "▁cutting": 7966,
      "▁sty": 7967,
      "▁surf": 7968,
      "▁Training": 7969,
      "chi": 7970,
      "▁houses": 7971,
      "▁incredible": 7972,
      "Open": 7973,
      "▁assets": 7974,
      "ialize": 7975,
      "enced": 7976,
      "▁lift": 7977,
      "▁passing": 7978,
      "▁Ball": 7979,
      "COM": 7980,
      "END": 7981,
      "ando": 7982,
      "▁silver": 7983,
      "▁jew": 7984,
      "▁acid": 7985,
      "▁Case": 7986,
      "Utils": 7987,
      "▁retain": 7988,
      "▁studio": 7989,
      "buffer": 7990,
      "Str": 7991,
      "▁monthly": 7992,
      "▁possibility": 7993,
      "▁Material": 7994,
      "{\"": 7995,
      "EE": 7996,
      "▁historical": 7997,
      "▁++": 7998,
      "▁Las": 7999,
      "▁Carolina": 8000,
      "▁samples": 8001,
      "▁unf": 8002,
      "ERT": 8003,
      "▁commission": 8004,
      "▁Bit": 8005,
      "entity": 8006,
      "actor": 8007,
      "▁charged": 8008,
      "▁seriously": 8009,
      "▁wet": 8010,
      "▁Math": 8011,
      "▁Building": 8012,
      "hs": 8013,
      "▁accurate": 8014,
      "▁reasonable": 8015,
      "▁strict": 8016,
      "▁impossible": 8017,
      "▁pulled": 8018,
      "▁authority": 8019,
      "▁engineering": 8020,
      "▁investigation": 8021,
      "Http": 8022,
      "▁till": 8023,
      "ultural": 8024,
      "BI": 8025,
      "irement": 8026,
      "▁scientific": 8027,
      "▁experiment": 8028,
      "▁networks": 8029,
      "▁consc": 8030,
      "▁Figure": 8031,
      "pop": 8032,
      "Wh": 8033,
      "▁affordable": 8034,
      "▁adds": 8035,
      "▁DC": 8036,
      "▁nearby": 8037,
      "▁branch": 8038,
      "Menu": 8039,
      "▁Chair": 8040,
      "▁Store": 8041,
      "▁stim": 8042,
      "▁Hope": 8043,
      "earing": 8044,
      "▁poll": 8045,
      "’.": 8046,
      "▁Dar": 8047,
      "▁buffer": 8048,
      "▁interior": 8049,
      "ppers": 8050,
      "irms": 8051,
      "repon": 8052,
      "▁expertise": 8053,
      "▁inches": 8054,
      "isms": 8055,
      "▁documentation": 8056,
      "reponame": 8057,
      "▁Dog": 8058,
      "stein": 8059,
      "chema": 8060,
      "asm": 8061,
      "▁bonus": 8062,
      "imation": 8063,
      "▁Daily": 8064,
      "▁Perhaps": 8065,
      "ciples": 8066,
      "iders": 8067,
      "▁walked": 8068,
      "▁somewhere": 8069,
      "▁Op": 8070,
      "▁cake": 8071,
      "▁losing": 8072,
      "▁improvement": 8073,
      "▁dining": 8074,
      "▁lit": 8075,
      "sd": 8076,
      "CTION": 8077,
      ">&": 8078,
      "|\\": 8079,
      "▁regul": 8080,
      "▁Jenn": 8081,
      "▁acknow": 8082,
      "▁containing": 8083,
      "bel": 8084,
      "▁comprehensive": 8085,
      "pay": 8086,
      "▁PH": 8087,
      "▁sheet": 8088,
      "▁profit": 8089,
      "▁scan": 8090,
      "▁Academy": 8091,
      "▁json": 8092,
      "▁Financial": 8093,
      "▁unable": 8094,
      "▁Country": 8095,
      "▁Olymp": 8096,
      "▁noise": 8097,
      "▁ol": 8098,
      "efined": 8099,
      "▁regularly": 8100,
      "attr": 8101,
      "Char": 8102,
      "▁dangerous": 8103,
      "si": 8104,
      "frame": 8105,
      "▁Bath": 8106,
      "▁Far": 8107,
      "▁entered": 8108,
      "▁Put": 8109,
      "lywood": 8110,
      "iverse": 8111,
      "ля": 8112,
      "ся": 8113,
      "Vector": 8114,
      "ether": 8115,
      "▁Available": 8116,
      "▁Rose": 8117,
      "▁requests": 8118,
      "je": 8119,
      "де": 8120,
      "reated": 8121,
      "▁applicable": 8122,
      "holder": 8123,
      "▁vacc": 8124,
      "▁sizes": 8125,
      "▁hall": 8126,
      "▁assessment": 8127,
      "▁Communic": 8128,
      ".<": 8129,
      "!!!!": 8130,
      "▁bat": 8131,
      "▁Unfortunately": 8132,
      "tilde": 8133,
      "▁Property": 8134,
      "▁Personal": 8135,
      "isa": 8136,
      "entry": 8137,
      "▁Mrs": 8138,
      "ira": 8139,
      "▁fairly": 8140,
      "▁grew": 8141,
      "bridge": 8142,
      "▁phen": 8143,
      "stone": 8144,
      "▁Such": 8145,
      "▁issued": 8146,
      "quad": 8147,
      "Arg": 8148,
      "▁Ray": 8149,
      "▁Wat": 8150,
      "criptor": 8151,
      "ASE": 8152,
      "Body": 8153,
      "osc": 8154,
      "ige": 8155,
      "▁arguments": 8156,
      "anny": 8157,
      "Med": 8158,
      "▁Oil": 8159,
      "▁Ren": 8160,
      "coin": 8161,
      "▁mel": 8162,
      "▁Total": 8163,
      "▁Content": 8164,
      "ía": 8165,
      "▁variables": 8166,
      "▁COVID": 8167,
      "▁Cat": 8168,
      "▁Isl": 8169,
      "▁mm": 8170,
      "▁warn": 8171,
      "▁delight": 8172,
      "▁obj": 8173,
      "▁participate": 8174,
      "▁SD": 8175,
      "ante": 8176,
      "▁Server": 8177,
      "▁scope": 8178,
      "▁tip": 8179,
      "RC": 8180,
      "ponents": 8181,
      "▁linked": 8182,
      "Empty": 8183,
      "▁edition": 8184,
      "▁officers": 8185,
      "▁rating": 8186,
      "asters": 8187,
      "Process": 8188,
      "ador": 8189,
      "▁rend": 8190,
      "▁competitive": 8191,
      "▁dates": 8192,
      "▁wave": 8193,
      "▁Spanish": 8194,
      "▁Iss": 8195,
      "Book": 8196,
      "module": 8197,
      "oder": 8198,
      "▁loves": 8199,
      "MC": 8200,
      "▁bare": 8201,
      "▁flash": 8202,
      "scription": 8203,
      "▁Ram": 8204,
      "([": 8205,
      "▁token": 8206,
      "ERE": 8207,
      "bd": 8208,
      "▁Chapter": 8209,
      "▁Site": 8210,
      "HS": 8211,
      "▁MD": 8212,
      "pool": 8213,
      "▁slowly": 8214,
      "▁cm": 8215,
      "▁chart": 8216,
      "▁stack": 8217,
      "▁suc": 8218,
      "▁chapter": 8219,
      "Ste": 8220,
      "▁infrastructure": 8221,
      "ceived": 8222,
      "born": 8223,
      "▁dropped": 8224,
      "▁Summer": 8225,
      "Eng": 8226,
      "▁Shop": 8227,
      "otton": 8228,
      "▁pil": 8229,
      "Access": 8230,
      "▁electronic": 8231,
      "jpg": 8232,
      "ali": 8233,
      "▁Ire": 8234,
      "▁skill": 8235,
      "▁basically": 8236,
      "final": 8237,
      "▁advoc": 8238,
      "▁ordered": 8239,
      "▁sight": 8240,
      "API": 8241,
      "▁era": 8242,
      "idays": 8243,
      "▁PDF": 8244,
      "▁scheme": 8245,
      "▁None": 8246,
      "▁stands": 8247,
      "▁viagra": 8248,
      "▁portion": 8249,
      "▁obviously": 8250,
      "column": 8251,
      "▁Value": 8252,
      "▁technique": 8253,
      "▁represents": 8254,
      "Impl": 8255,
      "xff": 8256,
      "▁tiny": 8257,
      "▁Arab": 8258,
      "%.": 8259,
      ">,": 8260,
      "ansas": 8261,
      "▁matches": 8262,
      "▁^": 8263,
      "▁Welcome": 8264,
      "filter": 8265,
      "oral": 8266,
      "▁talent": 8267,
      "▁apartment": 8268,
      "по": 8269,
      "▁newsp": 8270,
      "ча": 8271,
      "▁facing": 8272,
      "vin": 8273,
      "/**": 8274,
      "▁situations": 8275,
      "▁Son": 8276,
      "utils": 8277,
      "background": 8278,
      "▁invent": 8279,
      "▁ticket": 8280,
      "▁bear": 8281,
      "child": 8282,
      "PRE": 8283,
      "▁{}": 8284,
      "▁hang": 8285,
      "enger": 8286,
      "ICE": 8287,
      "rak": 8288,
      "buf": 8289,
      "anguages": 8290,
      "Position": 8291,
      "▁\"<": 8292,
      "▁winner": 8293,
      "▁renew": 8294,
      "connect": 8295,
      "utch": 8296,
      "secut": 8297,
      "▁sky": 8298,
      "▁quote": 8299,
      "▁veter": 8300,
      "ila": 8301,
      "▁reward": 8302,
      " —": 8303,
      "acts": 8304,
      "▁Though": 8305,
      "▁Sher": 8306,
      "high": 8307,
      "▁Executive": 8308,
      "▁reporting": 8309,
      "Tag": 8310,
      "▁carbon": 8311,
      "▁storm": 8312,
      "Change": 8313,
      "lik": 8314,
      "Dec": 8315,
      "scope": 8316,
      "▁complain": 8317,
      "▁fighting": 8318,
      "▁confirmed": 8319,
      "▁pa": 8320,
      "Target": 8321,
      "allel": 8322,
      "▁Members": 8323,
      "▁league": 8324,
      "▁dram": 8325,
      "elle": 8326,
      "ennis": 8327,
      "▁subsequ": 8328,
      "rog": 8329,
      "сь": 8330,
      "▁registration": 8331,
      "▁hoping": 8332,
      "▁resulting": 8333,
      "When": 8334,
      "Ver": 8335,
      "aturally": 8336,
      "onna": 8337,
      "WA": 8338,
      "▁pp": 8339,
      "▁manufacturing": 8340,
      "▁searching": 8341,
      "▁styles": 8342,
      "ima": 8343,
      "▁Columb": 8344,
      "vol": 8345,
      "▁medicine": 8346,
      "▁solar": 8347,
      "container": 8348,
      "▁victory": 8349,
      "SET": 8350,
      "▁mini": 8351,
      "▁concrete": 8352,
      "▁listening": 8353,
      "▁carefully": 8354,
      "Var": 8355,
      "▁Bad": 8356,
      "They": 8357,
      "erved": 8358,
      "▁WIT": 8359,
      "▁beer": 8360,
      "▁Ash": 8361,
      "▁grab": 8362,
      "Down": 8363,
      "▁younger": 8364,
      "▁guarantee": 8365,
      "▁vo": 8366,
      "VAL": 8367,
      "▁creates": 8368,
      "\"`": 8369,
      "▁convenient": 8370,
      "▁owned": 8371,
      "▁Loc": 8372,
      "▁institutions": 8373,
      "aron": 8374,
      "erent": 8375,
      "▁reply": 8376,
      "▁extensive": 8377,
      "▁normally": 8378,
      "icket": 8379,
      "▁framework": 8380,
      "aylor": 8381,
      "▁figures": 8382,
      "▁si": 8383,
      "ROM": 8384,
      "folio": 8385,
      "▁generic": 8386,
      "cling": 8387,
      "docs": 8388,
      "▁Customer": 8389,
      "▁к": 8390,
      "astern": 8391,
      "▁privacy": 8392,
      "▁planet": 8393,
      "▁repeat": 8394,
      "▁mainly": 8395,
      "req": 8396,
      "▁forth": 8397,
      "▁employment": 8398,
      "ть": 8399,
      "▁liquid": 8400,
      "▁conducted": 8401,
      "▁premium": 8402,
      "▁Scot": 8403,
      "▁dur": 8404,
      "▁Professor": 8405,
      "▁organic": 8406,
      "▁clar": 8407,
      "▁surrounding": 8408,
      "amps": 8409,
      "txt": 8410,
      "▁Think": 8411,
      "▁west": 8412,
      "▁bowl": 8413,
      "▁thin": 8414,
      "ran": 8415,
      "osa": 8416,
      "▁Mom": 8417,
      "▁para": 8418,
      ":\\": 8419,
      "▁formed": 8420,
      "▁procedures": 8421,
      "ACE": 8422,
      "athan": 8423,
      "▁defe": 8424,
      "ublisher": 8425,
      "▁Change": 8426,
      "▁Has": 8427,
      "▁Application": 8428,
      "▁Auto": 8429,
      "tle": 8430,
      "mg": 8431,
      "hire": 8432,
      "▁trick": 8433,
      "▁spoke": 8434,
      "▁bab": 8435,
      "▁Level": 8436,
      "▁Santa": 8437,
      "send": 8438,
      "▁trail": 8439,
      "▁warrant": 8440,
      "PORT": 8441,
      "▁Ira": 8442,
      "▁zone": 8443,
      "▁vul": 8444,
      "▁Vill": 8445,
      "ials": 8446,
      "Mon": 8447,
      "▁hyper": 8448,
      "raid": 8449,
      "▁featured": 8450,
      "▁fold": 8451,
      "▁Living": 8452,
      "▁Credit": 8453,
      "ospit": 8454,
      "Tube": 8455,
      "nic": 8456,
      "▁letters": 8457,
      "▁Systems": 8458,
      "▁Ohio": 8459,
      "▁Lind": 8460,
      "▁justice": 8461,
      "▁legs": 8462,
      "Draw": 8463,
      "▁Engineering": 8464,
      "▁agencies": 8465,
      "▁PA": 8466,
      "▁underst": 8467,
      "▁capable": 8468,
      "▁sessions": 8469,
      "▁upcoming": 8470,
      "▁believed": 8471,
      "▁recognized": 8472,
      "▁Hun": 8473,
      "▁purs": 8474,
      "▁originally": 8475,
      "▁cock": 8476,
      "▁investors": 8477,
      "NO": 8478,
      "▁Hello": 8479,
      "Me": 8480,
      "MP": 8481,
      "unes": 8482,
      "aine": 8483,
      "orters": 8484,
      "▁Instagram": 8485,
      "▁Scholar": 8486,
      "▁Interest": 8487,
      "pers": 8488,
      "▁criminal": 8489,
      "▁promise": 8490,
      "▁pill": 8491,
      "Top": 8492,
      "pa": 8493,
      "▁personally": 8494,
      "dy": 8495,
      "EXT": 8496,
      "ographic": 8497,
      "▁header": 8498,
      "email": 8499,
      "▁politics": 8500,
      "▁Clin": 8501,
      "▁Coast": 8502,
      "▁bottle": 8503,
      "▁${": 8504,
      "%,": 8505,
      "▁Michigan": 8506,
      "Entry": 8507,
      "WR": 8508,
      "▁Silver": 8509,
      "Pol": 8510,
      "▁terr": 8511,
      "▁Advert": 8512,
      "▁Fre": 8513,
      "▁destination": 8514,
      "▁seed": 8515,
      "▁remark": 8516,
      "ournament": 8517,
      "▁regional": 8518,
      "▁gay": 8519,
      "enter": 8520,
      "▁SC": 8521,
      "bound": 8522,
      "▁meetings": 8523,
      "printf": 8524,
      "▁une": 8525,
      "obby": 8526,
      "mut": 8527,
      "▁shooting": 8528,
      "▁intent": 8529,
      "package": 8530,
      "▁Nick": 8531,
      ";</": 8532,
      "▁nob": 8533,
      "ME": 8534,
      "bm": 8535,
      "▁teeth": 8536,
      "▁attacks": 8537,
      "▁Garden": 8538,
      "▁shouldn": 8539,
      "intage": 8540,
      "▁forum": 8541,
      "igible": 8542,
      "▁tack": 8543,
      "▁Francisco": 8544,
      "aze": 8545,
      "▁Pur": 8546,
      "▁succeed": 8547,
      "quir": 8548,
      "dim": 8549,
      "▁Mov": 8550,
      "▁anymore": 8551,
      "hal": 8552,
      "▁domestic": 8553,
      "▁attached": 8554,
      ".*": 8555,
      "RS": 8556,
      "▁contest": 8557,
      "▁hardware": 8558,
      "Window": 8559,
      "inator": 8560,
      "▁Mir": 8561,
      "▁Drive": 8562,
      "▁dialog": 8563,
      "▁desired": 8564,
      "▁debate": 8565,
      "▁reaction": 8566,
      "▁elev": 8567,
      "▁painting": 8568,
      ">();": 8569,
      "▁isol": 8570,
      "Gl": 8571,
      "aset": 8572,
      "Do": 8573,
      "▁judge": 8574,
      "▁Enjoy": 8575,
      "▁tall": 8576,
      "▁Ve": 8577,
      "▁Bible": 8578,
      "tons": 8579,
      "▁Fed": 8580,
      "onymous": 8581,
      "▁committee": 8582,
      "▁payments": 8583,
      "▁Ty": 8584,
      "MT": 8585,
      "▁recognize": 8586,
      "▁jun": 8587,
      "▁Being": 8588,
      "▁innovative": 8589,
      "sqrt": 8590,
      "▁banks": 8591,
      "ingers": 8592,
      "▁challenging": 8593,
      "▁suggests": 8594,
      "▁Member": 8595,
      "edly": 8596,
      "jupyter": 8597,
      "yard": 8598,
      "ela": 8599,
      "▁scheduled": 8600,
      "▁Kat": 8601,
      "▁Insurance": 8602,
      "▁campus": 8603,
      "Configuration": 8604,
      "▁Dou": 8605,
      "onder": 8606,
      "▁Story": 8607,
      "▁Les": 8608,
      "IGHT": 8609,
      "▁keys": 8610,
      "\\,": 8611,
      "▁Iran": 8612,
      "▁Age": 8613,
      "property": 8614,
      "=(": 8615,
      "▁wel": 8616,
      "▁affili": 8617,
      "▁BE": 8618,
      "▁Italy": 8619,
      "▁Space": 8620,
      "▁coc": 8621,
      "▁feelings": 8622,
      "Container": 8623,
      "▁bodies": 8624,
      "ummy": 8625,
      "▁everyday": 8626,
      "Assert": 8627,
      "entle": 8628,
      "▁somewhat": 8629,
      "▁blocks": 8630,
      "▁awareness": 8631,
      "▁dealing": 8632,
      "▁incident": 8633,
      "ni": 8634,
      "ocker": 8635,
      "''": 8636,
      "▁rail": 8637,
      "zil": 8638,
      "▁reserved": 8639,
      "▁stretch": 8640,
      "▁ty": 8641,
      "normal": 8642,
      "▁musical": 8643,
      "▁Common": 8644,
      "ugs": 8645,
      "war": 8646,
      "▁reform": 8647,
      "▁PS": 8648,
      "▁sending": 8649,
      "▁entertainment": 8650,
      "▁breath": 8651,
      "uan": 8652,
      "▁corresponding": 8653,
      "▁replaced": 8654,
      "ikes": 8655,
      "Current": 8656,
      "Api": 8657,
      "lay": 8658,
      "▁agents": 8659,
      "▁categories": 8660,
      "▁tub": 8661,
      "▁className": 8662,
      "▁checked": 8663,
      "ме": 8664,
      "▁interpret": 8665,
      "LA": 8666,
      "▁mg": 8667,
      "▁relief": 8668,
      "▁ratio": 8669,
      "▁Products": 8670,
      "Function": 8671,
      "bury": 8672,
      "Pos": 8673,
      "▁favourite": 8674,
      "btn": 8675,
      "▁os": 8676,
      "▁CP": 8677,
      "▁Exam": 8678,
      "▁Sav": 8679,
      "▁worldwide": 8680,
      "cdot": 8681,
      "▁Pen": 8682,
      "▁reduction": 8683,
      "▁Farm": 8684,
      "▁estimated": 8685,
      "ingle": 8686,
      "▁replacement": 8687,
      "owntown": 8688,
      "▁Veg": 8689,
      "▁magazine": 8690,
      "▁bug": 8691,
      "offset": 8692,
      "▁gorgeous": 8693,
      "clear": 8694,
      "▁usage": 8695,
      "▁True": 8696,
      "ido": 8697,
      "ernel": 8698,
      "▁*)": 8699,
      "▁sole": 8700,
      "▁vend": 8701,
      "▁impressive": 8702,
      "▁Na": 8703,
      "isted": 8704,
      "names": 8705,
      "▁watched": 8706,
      "▁permission": 8707,
      "▁subs": 8708,
      "▁absor": 8709,
      "Case": 8710,
      "{\r": 8711,
      "▁stood": 8712,
      "▁virt": 8713,
      "▁expectations": 8714,
      "ATA": 8715,
      "{}": 8716,
      "First": 8717,
      "sect": 8718,
      "▁compens": 8719,
      "▁byte": 8720,
      "sen": 8721,
      "▁Senior": 8722,
      "Fi": 8723,
      "ifest": 8724,
      "▁Fall": 8725,
      "RI": 8726,
      "oz": 8727,
      "▁Joseph": 8728,
      "eqn": 8729,
      "▁<=": 8730,
      "▁vacation": 8731,
      "xc": 8732,
      "▁capture": 8733,
      "ifer": 8734,
      "Are": 8735,
      "▁trained": 8736,
      "▁mand": 8737,
      "▁equivalent": 8738,
      "▁Southern": 8739,
      "BN": 8740,
      "▁correctly": 8741,
      "ilton": 8742,
      "Params": 8743,
      "▁Iraq": 8744,
      "▁powder": 8745,
      "▁expressed": 8746,
      "▁vast": 8747,
      "pons": 8748,
      "▁Division": 8749,
      "Height": 8750,
      "oded": 8751,
      "▁Paper": 8752,
      "▁visible": 8753,
      "idx": 8754,
      "▁ages": 8755,
      "▁protocol": 8756,
      "\",\r": 8757,
      "▁shell": 8758,
      "▁explan": 8759,
      "TD": 8760,
      "▁Standard": 8761,
      "▁ans": 8762,
      "▁narrow": 8763,
      "▁leather": 8764,
      "Reader": 8765,
      "loor": 8766,
      "Settings": 8767,
      "anel": 8768,
      "(*": 8769,
      "▁aside": 8770,
      "illiant": 8771,
      "▁Hop": 8772,
      "menu": 8773,
      "▁tur": 8774,
      "Sim": 8775,
      "anes": 8776,
      "▁chose": 8777,
      "Last": 8778,
      "worth": 8779,
      "▁Film": 8780,
      "▁Visit": 8781,
      "▁institution": 8782,
      "▁recall": 8783,
      "aux": 8784,
      "▁athlet": 8785,
      "▁compat": 8786,
      "▁inject": 8787,
      "▁moves": 8788,
      "empl": 8789,
      "Async": 8790,
      "▁Bul": 8791,
      "▁writers": 8792,
      "▁grid": 8793,
      "egr": 8794,
      "▁Ford": 8795,
      "ipeline": 8796,
      "Fig": 8797,
      "ня": 8798,
      "▁FA": 8799,
      "▁Rod": 8800,
      "▁formal": 8801,
      "▁lucky": 8802,
      "▁hasn": 8803,
      "▁Sa": 8804,
      "Store": 8805,
      "bind": 8806,
      "▁cooper": 8807,
      "▁rental": 8808,
      "▁colle": 8809,
      "▁tonight": 8810,
      "▁Ryan": 8811,
      "▁Army": 8812,
      "▁Ask": 8813,
      "▁pra": 8814,
      "▁Child": 8815,
      "irection": 8816,
      "▁persons": 8817,
      "▁taxes": 8818,
      "=\"#": 8819,
      "atabase": 8820,
      "▁Treat": 8821,
      "▁pand": 8822,
      "Sl": 8823,
      "▁iP": 8824,
      "hav": 8825,
      "▁tap": 8826,
      "agues": 8827,
      "Te": 8828,
      "uling": 8829,
      "▁Dam": 8830,
      "▁Learning": 8831,
      "▁Eric": 8832,
      "erer": 8833,
      "uous": 8834,
      "▁stuck": 8835,
      "nor": 8836,
      "▁Quality": 8837,
      "patch": 8838,
      "▁closely": 8839,
      "▁golf": 8840,
      "Tree": 8841,
      "▁pic": 8842,
      "▁habit": 8843,
      "▁М": 8844,
      "▁wra": 8845,
      "BR": 8846,
      "▁pleasure": 8847,
      "▁mining": 8848,
      "▁Ron": 8849,
      "▁crucial": 8850,
      "▁inspiration": 8851,
      "▁spr": 8852,
      "▁transaction": 8853,
      "ONE": 8854,
      "Project": 8855,
      "Port": 8856,
      "▁mountain": 8857,
      "▁ble": 8858,
      "▁foundation": 8859,
      "enda": 8860,
      "params": 8861,
      "▁visited": 8862,
      "▁enthus": 8863,
      "▁folder": 8864,
      "▁phr": 8865,
      "TA": 8866,
      "inson": 8867,
      "option": 8868,
      "▁crack": 8869,
      "▁supplies": 8870,
      "▁stored": 8871,
      "▁vital": 8872,
      "▁Books": 8873,
      "pow": 8874,
      "lers": 8875,
      "Core": 8876,
      "Names": 8877,
      "▁magic": 8878,
      "▁Spirit": 8879,
      "▁shower": 8880,
      "▁kit": 8881,
      "Mem": 8882,
      "Press": 8883,
      "▁deck": 8884,
      "xa": 8885,
      "▁fulf": 8886,
      "▁unknown": 8887,
      "token": 8888,
      "Windows": 8889,
      "▁regions": 8890,
      "▁Remember": 8891,
      "▁Pak": 8892,
      "spe": 8893,
      "▁checking": 8894,
      "▁conflict": 8895,
      "forcement": 8896,
      "▁Student": 8897,
      "▁Ireland": 8898,
      "▁Easy": 8899,
      "▁dé": 8900,
      "▁xx": 8901,
      "▁hosting": 8902,
      "▁advis": 8903,
      "Local": 8904,
      "▁honor": 8905,
      "▁talked": 8906,
      "Num": 8907,
      "Big": 8908,
      "▁Install": 8909,
      "\"\r": 8910,
      "▁FL": 8911,
      "▁accessible": 8912,
      "liers": 8913,
      "▁superv": 8914,
      "inton": 8915,
      "▁hire": 8916,
      "▁opposite": 8917,
      "tics": 8918,
      "second": 8919,
      "▁whenever": 8920,
      "agen": 8921,
      "shot": 8922,
      "▁inline": 8923,
      "oned": 8924,
      "iot": 8925,
      "▁facilit": 8926,
      "▁forever": 8927,
      "dist": 8928,
      "inity": 8929,
      "////////////////": 8930,
      "ylv": 8931,
      "▁drag": 8932,
      "▁YouTube": 8933,
      "▁cu": 8934,
      "sis": 8935,
      "▁gifts": 8936,
      "make": 8937,
      "▁serves": 8938,
      "▁Machine": 8939,
      "Jo": 8940,
      "▁ongoing": 8941,
      "▁Autom": 8942,
      "▁afraid": 8943,
      "IVE": 8944,
      "Application": 8945,
      "stal": 8946,
      "ixel": 8947,
      "amental": 8948,
      "▁pleased": 8949,
      "▁fasc": 8950,
      "▁suspect": 8951,
      "▁io": 8952,
      "rition": 8953,
      "▁Professional": 8954,
      "transform": 8955,
      "▁contribute": 8956,
      "screen": 8957,
      "});": 8958,
      "`,": 8959,
      "▁async": 8960,
      "▁Carl": 8961,
      "▁occurred": 8962,
      "▁Consider": 8963,
      "▁membership": 8964,
      "▁blank": 8965,
      ")))": 8966,
      "▁risks": 8967,
      "▁assign": 8968,
      "▁millions": 8969,
      "ucky": 8970,
      "▁democr": 8971,
      "▁dust": 8972,
      "▁operate": 8973,
      "▁neut": 8974,
      "▁thorough": 8975,
      "си": 8976,
      "▁Staff": 8977,
      "acc": 8978,
      "▁Diff": 8979,
      "Next": 8980,
      "▁Asian": 8981,
      "▁featuring": 8982,
      "▁warning": 8983,
      "▁Jewish": 8984,
      "▁contemporary": 8985,
      "▁mask": 8986,
      "▁immediate": 8987,
      "▁mi": 8988,
      "▁τ": 8989,
      "▁necessarily": 8990,
      "▁negoti": 8991,
      "▁instrument": 8992,
      "▁Resources": 8993,
      "▁guitar": 8994,
      "▁hole": 8995,
      "▁bench": 8996,
      "eling": 8997,
      "▁earned": 8998,
      "chester": 8999,
      "▁repeated": 9000,
      "▁achieved": 9001,
      "onto": 9002,
      "▁Ter": 9003,
      "▁Double": 9004,
      "▁hits": 9005,
      "▁weekly": 9006,
      "cut": 9007,
      "▁genu": 9008,
      "yes": 9009,
      "▁Safety": 9010,
      "▁channels": 9011,
      "▁muscle": 9012,
      "▁debut": 9013,
      "▁yards": 9014,
      "teen": 9015,
      "alo": 9016,
      "▁heads": 9017,
      "▁г": 9018,
      "ById": 9019,
      "bool": 9020,
      "▁ec": 9021,
      "▁flour": 9022,
      "roph": 9023,
      "▁structures": 9024,
      "▁resistance": 9025,
      "▁LA": 9026,
      "step": 9027,
      "avor": 9028,
      "chron": 9029,
      "▁edit": 9030,
      ":.": 9031,
      "install": 9032,
      "▁Ur": 9033,
      "▁lists": 9034,
      "▁pink": 9035,
      "▁Studies": 9036,
      "description": 9037,
      "▁Address": 9038,
      "▁Psych": 9039,
      "▁Flow": 9040,
      "▁collected": 9041,
      "▁instruct": 9042,
      "▁relation": 9043,
      "до": 9044,
      "▁Without": 9045,
      "▁Smart": 9046,
      "ership": 9047,
      "▁contribut": 9048,
      "▁Results": 9049,
      "ulum": 9050,
      "▁dad": 9051,
      "▁confident": 9052,
      "▁appointment": 9053,
      "▁exclusive": 9054,
      "itage": 9055,
      "Location": 9056,
      "▁Effect": 9057,
      "▁extern": 9058,
      "istent": 9059,
      "▁rear": 9060,
      "loc": 9061,
      "Mar": 9062,
      "nab": 9063,
      "Pass": 9064,
      "▁cookies": 9065,
      "▁plane": 9066,
      "▁gal": 9067,
      "auto": 9068,
      "▁vel": 9069,
      "}[": 9070,
      "▁guidance": 9071,
      "TV": 9072,
      "▁Catholic": 9073,
      "▁formula": 9074,
      "▁tech": 9075,
      "made": 9076,
      "▁attribute": 9077,
      "▁Write": 9078,
      "ür": 9079,
      "▁counsel": 9080,
      "ORM": 9081,
      "▁rele": 9082,
      "▁twenty": 9083,
      "▁entity": 9084,
      "▁authorities": 9085,
      "archers": 9086,
      "oured": 9087,
      "▁\"\\": 9088,
      "▁monitoring": 9089,
      "▁existence": 9090,
      "▁crew": 9091,
      "GR": 9092,
      "▁roles": 9093,
      "urse": 9094,
      "▁neither": 9095,
      "▁drawing": 9096,
      "amber": 9097,
      "▁controls": 9098,
      "▁Ms": 9099,
      "▁Ly": 9100,
      "▁Want": 9101,
      "▁linear": 9102,
      "zed": 9103,
      "▁CR": 9104,
      "▁Senate": 9105,
      "▁arts": 9106,
      "▁Published": 9107,
      "▁guidelines": 9108,
      "▁Heart": 9109,
      "▁Ult": 9110,
      "values": 9111,
      "▁tum": 9112,
      "▁percentage": 9113,
      "psi": 9114,
      "acon": 9115,
      "▁Reading": 9116,
      "▁diverse": 9117,
      "▁evolution": 9118,
      "▁atmosphere": 9119,
      "▁penal": 9120,
      "▁anticip": 9121,
      "DR": 9122,
      "▁Medicine": 9123,
      "pling": 9124,
      "▁trav": 9125,
      "▁Cra": 9126,
      "▁Fred": 9127,
      "▁exposure": 9128,
      "▁airport": 9129,
      "▁literature": 9130,
      "▁Front": 9131,
      "element": 9132,
      "allow": 9133,
      "▁Natural": 9134,
      "▁ancient": 9135,
      "GA": 9136,
      "▁Bush": 9137,
      "▁philosoph": 9138,
      "▁informed": 9139,
      "Work": 9140,
      "▁overw": 9141,
      "▁Wi": 9142,
      "▁lighting": 9143,
      "▁compr": 9144,
      "aka": 9145,
      "▁healthcare": 9146,
      "Stack": 9147,
      "Can": 9148,
      "acher": 9149,
      "▁Justice": 9150,
      "di": 9151,
      "▁stable": 9152,
      "▁---": 9153,
      "boy": 9154,
      "MENT": 9155,
      "▁Taylor": 9156,
      "▁referred": 9157,
      "▁span": 9158,
      "▁ра": 9159,
      "toString": 9160,
      "▁Polit": 9161,
      "wa": 9162,
      "stack": 9163,
      "Order": 9164,
      "rox": 9165,
      "itan": 9166,
      "▁fault": 9167,
      "▁manufacturer": 9168,
      "inates": 9169,
      "zing": 9170,
      "▁spiritual": 9171,
      "sign": 9172,
      "▁exceed": 9173,
      "▁Stan": 9174,
      "▁Abstract": 9175,
      "▁packages": 9176,
      "▁interaction": 9177,
      "▁expansion": 9178,
      "▁Quick": 9179,
      "ilst": 9180,
      "▁copyright": 9181,
      "▁latter": 9182,
      "▁indu": 9183,
      "▁Sea": 9184,
      "▁tracks": 9185,
      "imental": 9186,
      "▁bunch": 9187,
      "▁Cru": 9188,
      "▁designer": 9189,
      "iate": 9190,
      "Unit": 9191,
      "oked": 9192,
      "▁Steel": 9193,
      "är": 9194,
      "▁lady": 9195,
      "etry": 9196,
      "▁Henry": 9197,
      "command": 9198,
      "▁flood": 9199,
      "▁lessons": 9200,
      "fire": 9201,
      "IE": 9202,
      "▁SP": 9203,
      "inch": 9204,
      "________________": 9205,
      "▁Made": 9206,
      "imize": 9207,
      "▁Experience": 9208,
      "▁grass": 9209,
      "▁Assert": 9210,
      "▁presents": 9211,
      "▁faces": 9212,
      "sters": 9213,
      "▁Muslim": 9214,
      "▁shots": 9215,
      "nie": 9216,
      "Activity": 9217,
      "ritten": 9218,
      "▁integrated": 9219,
      "orig": 9220,
      "▁Own": 9221,
      "border": 9222,
      "drop": 9223,
      "asts": 9224,
      "KEY": 9225,
      "uv": 9226,
      "press": 9227,
      "▁Rub": 9228,
      "cycle": 9229,
      "▁Adam": 9230,
      "▁ED": 9231,
      "▁routine": 9232,
      "▁Things": 9233,
      "▁ultimately": 9234,
      "orph": 9235,
      "irts": 9236,
      "▁Study": 9237,
      "▁displ": 9238,
      "▁factory": 9239,
      "▁attorney": 9240,
      "▁Georgia": 9241,
      "▁scored": 9242,
      "▁bags": 9243,
      "Ob": 9244,
      "▁clothing": 9245,
      "Am": 9246,
      "▁про": 9247,
      "▁Kenn": 9248,
      "▁directed": 9249,
      "odge": 9250,
      "upid": 9251,
      "ampion": 9252,
      "ні": 9253,
      "▁humans": 9254,
      "▁Colorado": 9255,
      "▁Py": 9256,
      "▁Nic": 9257,
      "_,": 9258,
      "▁talks": 9259,
      "▁east": 9260,
      "▁narr": 9261,
      "Search": 9262,
      "▁Sem": 9263,
      "▁clock": 9264,
      "apse": 9265,
      "▁handling": 9266,
      "▁ER": 9267,
      "issions": 9268,
      "found": 9269,
      "▁Broad": 9270,
      "athe": 9271,
      "exec": 9272,
      "▁decade": 9273,
      "▁Pict": 9274,
      "▁division": 9275,
      "▁extent": 9276,
      "▁union": 9277,
      "ски": 9278,
      "▁causing": 9279,
      "▁platforms": 9280,
      "▁organized": 9281,
      "▁celebrate": 9282,
      "▁rose": 9283,
      "▁scroll": 9284,
      "▁Band": 9285,
      "▁memories": 9286,
      "▁luxury": 9287,
      ".;": 9288,
      "▁limits": 9289,
      "▁suggestions": 9290,
      "▁duty": 9291,
      "letter": 9292,
      "Cache": 9293,
      "▁resort": 9294,
      "▁engage": 9295,
      "lyn": 9296,
      "▁Dark": 9297,
      "▁implemented": 9298,
      "▁segment": 9299,
      "document": 9300,
      "▁researchers": 9301,
      "▁choosing": 9302,
      "lee": 9303,
      "▁Opt": 9304,
      "▁Sarah": 9305,
      "▁coal": 9306,
      "files": 9307,
      "▁outstanding": 9308,
      "ometry": 9309,
      "atile": 9310,
      "edit": 9311,
      "▁regulations": 9312,
      "▁CN": 9313,
      "▁apparently": 9314,
      "▁nuclear": 9315,
      "▁Radio": 9316,
      "▁struggle": 9317,
      "Return": 9318,
      "▁Queen": 9319,
      "▁tank": 9320,
      "Hash": 9321,
      "▁Ut": 9322,
      "▁eggs": 9323,
      "▁cable": 9324,
      "otted": 9325,
      "▁adventure": 9326,
      "Args": 9327,
      "Wor": 9328,
      "dot": 9329,
      "Pre": 9330,
      "▁Bes": 9331,
      "erate": 9332,
      "▁rig": 9333,
      "▁injuries": 9334,
[...]
